const unsigned char model[] = {
  0x1c, 0x00, 0x00, 0x00, 0x54, 0x46, 0x4c, 0x33, 0x00, 0x00, 0x12, 0x00,
  0x1c, 0x00, 0x04, 0x00, 0x08, 0x00, 0x0c, 0x00, 0x10, 0x00, 0x14, 0x00,
  0x00, 0x00, 0x18, 0x00, 0x12, 0x00, 0x00, 0x00, 0x03, 0x00, 0x00, 0x00,
  0x98, 0x24, 0x00, 0x00, 0xa4, 0x1c, 0x00, 0x00, 0x8c, 0x1c, 0x00, 0x00,
  0x3c, 0x00, 0x00, 0x00, 0x04, 0x00, 0x00, 0x00, 0x01, 0x00, 0x00, 0x00,
  0x0c, 0x00, 0x00, 0x00, 0x08, 0x00, 0x0c, 0x00, 0x04, 0x00, 0x08, 0x00,
  0x08, 0x00, 0x00, 0x00, 0x08, 0x00, 0x00, 0x00, 0x0c, 0x00, 0x00, 0x00,
  0x13, 0x00, 0x00, 0x00, 0x6d, 0x69, 0x6e, 0x5f, 0x72, 0x75, 0x6e, 0x74,
  0x69, 0x6d, 0x65, 0x5f, 0x76, 0x65, 0x72, 0x73, 0x69, 0x6f, 0x6e, 0x00,
  0x0d, 0x00, 0x00, 0x00, 0x44, 0x1c, 0x00, 0x00, 0x28, 0x1c, 0x00, 0x00,
  0xdc, 0x1b, 0x00, 0x00, 0x9c, 0x1b, 0x00, 0x00, 0x9c, 0x18, 0x00, 0x00,
  0xc4, 0x17, 0x00, 0x00, 0x44, 0x00, 0x00, 0x00, 0x3c, 0x00, 0x00, 0x00,
  0x34, 0x00, 0x00, 0x00, 0x2c, 0x00, 0x00, 0x00, 0x24, 0x00, 0x00, 0x00,
  0x1c, 0x00, 0x00, 0x00, 0x04, 0x00, 0x00, 0x00, 0x56, 0xe3, 0xff, 0xff,
  0x04, 0x00, 0x00, 0x00, 0x05, 0x00, 0x00, 0x00, 0x31, 0x2e, 0x35, 0x2e,
  0x30, 0x00, 0x00, 0x00, 0x38, 0xe3, 0xff, 0xff, 0x3c, 0xe3, 0xff, 0xff,
  0x40, 0xe3, 0xff, 0xff, 0x44, 0xe3, 0xff, 0xff, 0x48, 0xe3, 0xff, 0xff,
  0x7e, 0xe3, 0xff, 0xff, 0x04, 0x00, 0x00, 0x00, 0x70, 0x17, 0x00, 0x00,
  0xe7, 0xfd, 0xf1, 0xd7, 0xdc, 0xf4, 0x10, 0x29, 0x04, 0x02, 0x0d, 0x0e,
  0x33, 0x00, 0x01, 0xfa, 0xd7, 0xfa, 0x12, 0x02, 0xdd, 0x15, 0x1e, 0x08,
  0x1b, 0xfa, 0x19, 0x24, 0xf0, 0x16, 0xfc, 0x16, 0x00, 0x0d, 0xe7, 0x2a,
  0xe3, 0x2c, 0xe1, 0xed, 0x1c, 0x0c, 0x07, 0xd3, 0xff, 0x02, 0xe7, 0x1e,
  0xea, 0x13, 0x1b, 0x2e, 0x2d, 0xfe, 0xf9, 0xeb, 0x13, 0x09, 0x0a, 0x06,
  0xe4, 0x15, 0xd9, 0x19, 0x1b, 0xfc, 0xf1, 0xe5, 0x17, 0xde, 0xf3, 0x09,
  0xff, 0xf8, 0x0a, 0xdd, 0xf5, 0xfc, 0x00, 0x13, 0xea, 0x34, 0xd3, 0x2d,
  0xdb, 0xe5, 0xf2, 0xe4, 0x04, 0xfb, 0xfd, 0x0e, 0xe3, 0x10, 0xf3, 0xf4,
  0xec, 0xd1, 0xd9, 0xf8, 0x06, 0xf1, 0x2c, 0xed, 0xd7, 0x19, 0x2c, 0xe0,
  0xed, 0xff, 0x00, 0x0e, 0xea, 0xff, 0x01, 0x35, 0x27, 0xe7, 0xe5, 0xf9,
  0x28, 0x04, 0x2d, 0xf9, 0x1d, 0xff, 0xf3, 0x0c, 0x39, 0x00, 0xf3, 0xe9,
  0xf2, 0x31, 0x47, 0x05, 0x25, 0xe8, 0x0f, 0x20, 0x25, 0x29, 0xfb, 0x04,
  0xfe, 0x0c, 0xf6, 0xf0, 0xfc, 0xd0, 0x38, 0x17, 0x18, 0xd1, 0xdc, 0xec,
  0x1e, 0x44, 0x02, 0x0a, 0x17, 0x13, 0x0c, 0x34, 0x04, 0x00, 0x0a, 0x04,
  0x07, 0x49, 0x29, 0x03, 0x02, 0x08, 0xf0, 0xfe, 0x2d, 0x10, 0xf7, 0xfa,
  0x1c, 0x0a, 0xef, 0xe9, 0xcc, 0x0b, 0x26, 0x4c, 0x27, 0xe5, 0x15, 0xf7,
  0x17, 0x00, 0x0d, 0xf1, 0xe4, 0x09, 0xd0, 0x05, 0x2d, 0xfc, 0x01, 0x1b,
  0x03, 0x08, 0x0c, 0xf2, 0xfa, 0xf9, 0xf8, 0xf8, 0x11, 0xf2, 0x00, 0x21,
  0x0b, 0x35, 0x18, 0x32, 0x2e, 0xfb, 0x2a, 0x45, 0x1b, 0x26, 0x23, 0x09,
  0x0c, 0x3d, 0x1d, 0xe7, 0xdd, 0xd2, 0xfa, 0x20, 0x09, 0xec, 0xd8, 0xfe,
  0x11, 0x1e, 0xeb, 0xd2, 0x01, 0x00, 0x25, 0xd8, 0x03, 0xfb, 0x25, 0xfb,
  0x1f, 0xd4, 0x0f, 0x0c, 0xfd, 0xe9, 0xf2, 0x13, 0x01, 0xfd, 0xdf, 0xe3,
  0xe1, 0xd6, 0x0a, 0x08, 0x09, 0x00, 0xd3, 0xcf, 0xe7, 0x08, 0x04, 0x03,
  0xff, 0xf0, 0x19, 0xe6, 0x0d, 0x1a, 0x06, 0xff, 0xd9, 0xe3, 0xe9, 0x01,
  0xe5, 0x09, 0x06, 0xea, 0xce, 0x07, 0x2f, 0x05, 0xf6, 0xfd, 0x04, 0xe7,
  0xfc, 0x09, 0x13, 0x1f, 0x23, 0x0d, 0xed, 0x28, 0xd9, 0x30, 0x0a, 0xf8,
  0xf4, 0xe3, 0x17, 0xf4, 0x23, 0xda, 0xfa, 0xeb, 0xf3, 0x1a, 0xf0, 0xfc,
  0x1d, 0xfa, 0x07, 0x1b, 0xd9, 0xe9, 0xdc, 0x0b, 0xf3, 0x28, 0x0c, 0x36,
  0x0a, 0xe2, 0xce, 0x25, 0xfe, 0x24, 0xfd, 0xfb, 0x08, 0xcd, 0xf1, 0xdb,
  0x21, 0xd9, 0x03, 0xf4, 0x1a, 0x04, 0x11, 0x1b, 0x20, 0x08, 0xec, 0x27,
  0x1d, 0x36, 0xe6, 0x16, 0xed, 0xf7, 0x02, 0x51, 0x11, 0x03, 0x13, 0x0b,
  0x12, 0x32, 0x1c, 0x17, 0xf8, 0x07, 0x25, 0x4e, 0x1b, 0x03, 0xed, 0x0a,
  0x21, 0x39, 0xe8, 0xee, 0x05, 0xf8, 0x57, 0x53, 0x19, 0x24, 0xf5, 0x27,
  0x2a, 0x39, 0x00, 0xec, 0xf7, 0x04, 0x49, 0x78, 0xed, 0xc5, 0x08, 0xee,
  0x17, 0x47, 0x14, 0xbb, 0x11, 0xee, 0x45, 0x14, 0x26, 0xc3, 0xf6, 0x1e,
  0xf2, 0x5d, 0x32, 0x0d, 0xdc, 0x2d, 0xf4, 0x33, 0xe4, 0xf7, 0x12, 0xd0,
  0x4d, 0x2b, 0xf0, 0x02, 0xf1, 0x04, 0x0d, 0x3a, 0x07, 0xe5, 0xe1, 0x05,
  0x41, 0x58, 0x1d, 0xee, 0xfd, 0x05, 0x26, 0x56, 0xef, 0xe6, 0x12, 0x00,
  0x26, 0x5b, 0xe7, 0xf4, 0xd7, 0x28, 0x12, 0x62, 0x16, 0xef, 0x12, 0x11,
  0x25, 0x4b, 0x35, 0xc7, 0x17, 0xfd, 0xf3, 0x6d, 0x1a, 0xd2, 0xf5, 0xf7,
  0xf8, 0xb3, 0x2f, 0xed, 0x26, 0xeb, 0xc7, 0xee, 0x1e, 0x16, 0x33, 0x1b,
  0x06, 0x0f, 0x2a, 0x07, 0x10, 0xcd, 0xbe, 0xd6, 0x33, 0xea, 0xd5, 0xfa,
  0xd1, 0xf3, 0xfb, 0xfc, 0x08, 0x06, 0xff, 0xf5, 0x47, 0xde, 0xf6, 0x2e,
  0xd7, 0xff, 0x14, 0x0a, 0x05, 0xf4, 0x00, 0xcd, 0x29, 0xdc, 0xdd, 0xf1,
  0xc6, 0xef, 0x27, 0x01, 0xf9, 0x13, 0xef, 0xc9, 0x1d, 0x1d, 0xe5, 0x0d,
  0xfa, 0xc4, 0xf8, 0x0e, 0x06, 0xfa, 0xd9, 0xc4, 0x35, 0xf3, 0x06, 0x00,
  0x15, 0x9e, 0x0d, 0xe6, 0x00, 0xee, 0x09, 0xec, 0x0e, 0x31, 0x29, 0xf0,
  0x0c, 0x8f, 0xfb, 0x03, 0xf9, 0xe2, 0x14, 0x97, 0xec, 0x2b, 0x11, 0x05,
  0xea, 0xc1, 0x0c, 0x16, 0x00, 0xe5, 0x08, 0xa4, 0xe8, 0x1a, 0x12, 0xdc,
  0xe6, 0xa7, 0x0b, 0x27, 0x1d, 0x0e, 0x05, 0xe3, 0x34, 0x01, 0x0a, 0xda,
  0x20, 0xed, 0x1f, 0xf1, 0x18, 0xd2, 0xf9, 0xcb, 0xfe, 0xe8, 0x18, 0x12,
  0xf5, 0xf5, 0x12, 0x01, 0x12, 0x06, 0x0d, 0xfa, 0xf4, 0x04, 0xec, 0x0a,
  0xf5, 0x01, 0x09, 0x30, 0xf1, 0x03, 0x02, 0xf7, 0x34, 0x0e, 0xd4, 0x08,
  0xe0, 0xde, 0xdf, 0xda, 0xfe, 0xf6, 0xd8, 0xde, 0x04, 0xf1, 0x19, 0x0a,
  0xe0, 0xe9, 0xfc, 0xec, 0xdc, 0xe5, 0xec, 0xe6, 0x14, 0xfb, 0x1e, 0x0a,
  0x17, 0xcb, 0x11, 0xe5, 0xdc, 0x0e, 0x14, 0x08, 0xf7, 0xfb, 0x2b, 0x26,
  0xdc, 0xfd, 0x02, 0xfb, 0x08, 0x15, 0xfa, 0xb7, 0x16, 0x01, 0x11, 0xde,
  0x01, 0xbe, 0x06, 0xf8, 0xe3, 0x05, 0x2c, 0xd3, 0x0e, 0xfb, 0xe8, 0xf2,
  0xf5, 0xed, 0x0f, 0xeb, 0x03, 0x12, 0xe3, 0x11, 0x0c, 0x13, 0xeb, 0x18,
  0x0d, 0x00, 0x23, 0x0a, 0xea, 0xd6, 0xe3, 0xdf, 0xe0, 0xf2, 0x2a, 0x0b,
  0x1b, 0xeb, 0x22, 0x2b, 0xe9, 0xf6, 0x00, 0x2a, 0x20, 0xec, 0xf3, 0x10,
  0x00, 0x05, 0x06, 0xf8, 0xf7, 0x21, 0xf0, 0x04, 0x05, 0x09, 0x1b, 0xf8,
  0xff, 0xff, 0xf7, 0xda, 0x02, 0x1c, 0x34, 0xfb, 0x1d, 0x30, 0x17, 0xf3,
  0x06, 0xfb, 0xfb, 0x02, 0xe7, 0x0e, 0x17, 0x0c, 0x17, 0xf9, 0xd3, 0xf0,
  0xd4, 0x0f, 0x05, 0xef, 0x0f, 0x09, 0xce, 0x14, 0xfc, 0xe2, 0x16, 0xf5,
  0xff, 0x0d, 0x07, 0x25, 0x09, 0xed, 0x21, 0xfa, 0x1f, 0xef, 0x0b, 0xda,
  0xfb, 0xfa, 0x0a, 0xda, 0x1a, 0xdf, 0x09, 0x15, 0x17, 0x12, 0xf0, 0x1c,
  0xdc, 0x2b, 0xfd, 0x01, 0xf1, 0xda, 0xfb, 0x01, 0xf5, 0xec, 0xda, 0x0a,
  0x0b, 0x27, 0x09, 0xd4, 0x09, 0xd9, 0x00, 0x1f, 0x20, 0xf5, 0xe2, 0x00,
  0x0b, 0xed, 0x06, 0xf1, 0x28, 0xf5, 0x06, 0xf1, 0x03, 0x0c, 0x08, 0xea,
  0xef, 0xda, 0x13, 0xf2, 0xe2, 0x04, 0xe0, 0xc8, 0xf6, 0xdc, 0x04, 0xf5,
  0xfb, 0xe1, 0xf5, 0x07, 0xfb, 0x0d, 0xdf, 0xf0, 0x10, 0xe1, 0xd4, 0xfe,
  0xf9, 0xf8, 0xfa, 0x13, 0x06, 0xd3, 0xd0, 0xd0, 0x1d, 0xff, 0x21, 0xd7,
  0x0a, 0xf8, 0x26, 0x07, 0x15, 0x12, 0x0e, 0xe7, 0xe2, 0xd0, 0xd2, 0xfd,
  0xdf, 0xeb, 0x03, 0xee, 0x1e, 0x06, 0x1e, 0xf9, 0x05, 0x09, 0x1a, 0x01,
  0x1f, 0xd2, 0x04, 0x34, 0x0b, 0x0f, 0x03, 0xcb, 0x03, 0xe9, 0xfa, 0x0f,
  0xf2, 0xfa, 0xed, 0xfc, 0x2b, 0x01, 0xf5, 0xcc, 0xf6, 0x2d, 0xec, 0xe5,
  0x19, 0xdf, 0x31, 0x08, 0xff, 0xf0, 0x0a, 0xca, 0x05, 0xe1, 0x29, 0x26,
  0xe9, 0xf1, 0x18, 0x11, 0xd0, 0xf0, 0x02, 0xf6, 0x0f, 0xe9, 0x03, 0xe2,
  0xd9, 0xd1, 0x14, 0x08, 0x1a, 0xff, 0x0e, 0xea, 0xed, 0xeb, 0x3b, 0x2c,
  0x06, 0xc7, 0x1a, 0xf5, 0xff, 0xe2, 0xed, 0xb5, 0xfc, 0x35, 0xf9, 0x31,
  0x32, 0xa8, 0xf6, 0x0e, 0x05, 0xf8, 0x22, 0xbc, 0xe8, 0x2a, 0xf0, 0x32,
  0xf6, 0xc4, 0x04, 0x00, 0x0b, 0x0d, 0x17, 0xce, 0x01, 0xd2, 0x04, 0xd8,
  0x0b, 0xd7, 0xe9, 0x1a, 0xf8, 0x25, 0xea, 0xfc, 0xce, 0xde, 0xfa, 0x11,
  0x18, 0xba, 0xf7, 0x01, 0xfc, 0x2a, 0x05, 0xcf, 0xe3, 0x11, 0x07, 0xfa,
  0xf2, 0xc5, 0x23, 0x07, 0xfe, 0xd4, 0x03, 0xe0, 0x28, 0x1a, 0xf9, 0xe0,
  0x09, 0xd3, 0xe4, 0x13, 0xf4, 0xca, 0x12, 0xd7, 0x18, 0xf5, 0xeb, 0x17,
  0x19, 0xca, 0xf9, 0xf8, 0xe0, 0x02, 0x31, 0xb4, 0xea, 0x12, 0xfe, 0xe0,
  0x2a, 0xd3, 0xf1, 0xee, 0xfe, 0x06, 0xfa, 0xbe, 0x04, 0xf2, 0x12, 0xfd,
  0x05, 0xba, 0xce, 0x0e, 0x17, 0x29, 0x07, 0xf8, 0x1d, 0xe2, 0x1f, 0x0f,
  0x20, 0x24, 0x0c, 0xf8, 0x0c, 0xcd, 0x29, 0x1e, 0x2f, 0x04, 0x14, 0x13,
  0x05, 0x26, 0x26, 0xf4, 0xf8, 0xe1, 0x22, 0x27, 0x15, 0x0f, 0x37, 0x0e,
  0xf2, 0x0f, 0xdd, 0x00, 0xfb, 0x07, 0xea, 0x33, 0x2a, 0xee, 0xd7, 0x10,
  0x04, 0x48, 0x12, 0xe8, 0xff, 0xf3, 0xfa, 0x31, 0x28, 0x31, 0x0f, 0xd9,
  0x23, 0x39, 0xf1, 0xcf, 0xf2, 0xf2, 0x3c, 0x0b, 0x3a, 0xca, 0x0e, 0x11,
  0x08, 0x13, 0x10, 0xf0, 0xef, 0xff, 0xf9, 0x14, 0x1f, 0xf5, 0x15, 0x07,
  0x2f, 0x1a, 0x23, 0xe4, 0xfa, 0x11, 0x1f, 0x56, 0x07, 0xcf, 0xfb, 0x04,
  0x01, 0x32, 0x2d, 0xea, 0x02, 0xe4, 0x30, 0x44, 0x0c, 0x02, 0xf4, 0xe0,
  0x1e, 0x2b, 0x1e, 0x18, 0x26, 0xea, 0x27, 0x38, 0xf9, 0x11, 0xf9, 0x05,
  0x21, 0x23, 0x1b, 0x06, 0x0f, 0xfa, 0x2d, 0x2f, 0x34, 0x20, 0x19, 0xdc,
  0x1f, 0x3f, 0x04, 0xfa, 0x1f, 0x0d, 0xea, 0x59, 0x21, 0x11, 0x07, 0x18,
  0xe8, 0x44, 0x02, 0xca, 0xe1, 0xe1, 0xf4, 0x29, 0xec, 0xf1, 0x05, 0x14,
  0xfe, 0x24, 0x2f, 0xfa, 0x10, 0x07, 0xed, 0x2d, 0x3c, 0x16, 0xf1, 0xf5,
  0xed, 0x29, 0x10, 0x13, 0xff, 0x13, 0x00, 0x21, 0x01, 0x01, 0xf0, 0xd7,
  0xef, 0x3d, 0x04, 0xd4, 0xf4, 0xff, 0xe0, 0x22, 0x24, 0xec, 0x1b, 0x00,
  0x1f, 0x4a, 0xf0, 0x0d, 0x12, 0xea, 0xf4, 0x0c, 0xfc, 0x17, 0xdc, 0x17,
  0xff, 0x27, 0xfd, 0xe4, 0xff, 0xfc, 0xec, 0x16, 0x07, 0xf2, 0x0a, 0xeb,
  0xef, 0x05, 0x40, 0x1c, 0x0c, 0x0f, 0xde, 0x15, 0x1e, 0xd7, 0x11, 0x09,
  0xcf, 0x04, 0x3e, 0xdc, 0xfd, 0x33, 0xe0, 0x2c, 0x31, 0xef, 0x03, 0x19,
  0xf9, 0x21, 0x25, 0xf6, 0x19, 0xfd, 0xe0, 0x44, 0x07, 0xf3, 0xe9, 0xee,
  0xfe, 0x0d, 0x0b, 0xf8, 0xeb, 0x1d, 0xf4, 0x15, 0x1f, 0xeb, 0x1a, 0x19,
  0xf9, 0x13, 0xde, 0xed, 0x10, 0x08, 0xf0, 0xf6, 0xf3, 0xd4, 0xcc, 0x2e,
  0xde, 0xe6, 0xeb, 0x16, 0x12, 0x33, 0x10, 0xec, 0x0f, 0x19, 0x23, 0xf4,
  0xf8, 0xf1, 0xcf, 0x11, 0x28, 0xd4, 0x1f, 0xed, 0xf0, 0x0b, 0x07, 0xca,
  0xf8, 0x17, 0xec, 0x03, 0x1b, 0x0c, 0x0b, 0x06, 0x25, 0xec, 0x13, 0xfd,
  0xf2, 0xe8, 0x18, 0x09, 0x00, 0xec, 0xf6, 0x0b, 0xf1, 0x04, 0x06, 0xea,
  0xee, 0xf0, 0xe6, 0xf8, 0xfe, 0x17, 0xd9, 0xf6, 0x08, 0xf3, 0xf4, 0xfa,
  0xf9, 0xe8, 0xf8, 0x04, 0xe6, 0xff, 0x19, 0x09, 0x12, 0x10, 0x09, 0x20,
  0xe1, 0x09, 0xdc, 0xea, 0xf8, 0x1f, 0x25, 0x29, 0x26, 0xe9, 0xe2, 0x01,
  0x10, 0x32, 0xef, 0x1e, 0xf6, 0xfd, 0xfc, 0x10, 0xdf, 0xde, 0xef, 0x0c,
  0x0b, 0xe4, 0x03, 0xf4, 0xef, 0x17, 0x06, 0xe3, 0xff, 0xeb, 0x00, 0xf9,
  0xf9, 0xee, 0xfe, 0x06, 0xfd, 0x06, 0x0c, 0x0e, 0x0d, 0xde, 0x0b, 0xfd,
  0x00, 0xef, 0xd8, 0xe9, 0x22, 0x2a, 0x13, 0xf3, 0x21, 0xdc, 0x1b, 0xe1,
  0xfa, 0xf0, 0x2e, 0x1e, 0xec, 0x17, 0xec, 0x0f, 0x1e, 0x1d, 0x09, 0xfc,
  0xcc, 0x28, 0xf0, 0x06, 0x14, 0x03, 0xfb, 0x1f, 0xdd, 0xfc, 0xd8, 0xde,
  0x13, 0xfd, 0xe9, 0xd7, 0x0b, 0x22, 0x19, 0x03, 0xfb, 0xe2, 0xea, 0xda,
  0xf5, 0xfb, 0x0f, 0xe7, 0x09, 0x09, 0xe4, 0x08, 0x17, 0x03, 0x25, 0xf7,
  0xe2, 0x1e, 0x05, 0xf0, 0x01, 0xf3, 0xfd, 0xe1, 0xf9, 0x15, 0xfd, 0xff,
  0xf5, 0xe5, 0xd5, 0xf2, 0xce, 0xff, 0x0c, 0x0c, 0xfd, 0x1f, 0x07, 0xf6,
  0xd5, 0x0e, 0xfc, 0x0a, 0xeb, 0x27, 0x22, 0xe4, 0xe3, 0x1f, 0xe8, 0xf3,
  0x2a, 0xbd, 0xfd, 0x15, 0x19, 0xf5, 0x09, 0x0d, 0x2c, 0xf5, 0x24, 0xe6,
  0x19, 0xd9, 0x05, 0xff, 0xfc, 0xf9, 0x13, 0xcd, 0x00, 0x03, 0x26, 0x00,
  0x23, 0xbd, 0xde, 0x01, 0xd0, 0xf3, 0xdc, 0x04, 0x0b, 0xfe, 0x12, 0xf8,
  0x1f, 0xc8, 0xce, 0xf4, 0x04, 0x19, 0xfc, 0xc2, 0x03, 0x0f, 0x07, 0x17,
  0xee, 0xca, 0xf6, 0x06, 0x06, 0x00, 0xf2, 0x0f, 0xe8, 0x1b, 0x12, 0x13,
  0x1c, 0xf8, 0x1d, 0xf2, 0xf2, 0xfc, 0x0b, 0xe6, 0x12, 0x17, 0xfe, 0xf9,
  0xfe, 0xb9, 0x19, 0x28, 0x24, 0xe9, 0x0f, 0xe0, 0x09, 0xf0, 0xde, 0x06,
  0xe6, 0xc8, 0xcd, 0xe4, 0x0e, 0xfb, 0x0e, 0xd6, 0x11, 0xfd, 0xf4, 0xcf,
  0xff, 0xc4, 0xe9, 0xee, 0x02, 0x29, 0x1d, 0xf9, 0xf0, 0xce, 0x0c, 0x10,
  0x05, 0xe0, 0xf0, 0x1a, 0xf4, 0xeb, 0x13, 0xd4, 0x13, 0x29, 0x14, 0xf9,
  0x21, 0xeb, 0x0f, 0x1d, 0xd7, 0xe8, 0xdc, 0x15, 0xe2, 0x22, 0xff, 0x02,
  0x11, 0xed, 0x0b, 0xf8, 0xdb, 0x02, 0xff, 0xf6, 0xea, 0x2c, 0xfb, 0x06,
  0x1d, 0x22, 0x11, 0xff, 0xf5, 0x28, 0xdc, 0xf1, 0x06, 0xe7, 0xdd, 0xea,
  0x1c, 0x17, 0xdb, 0xfb, 0x21, 0xfa, 0x13, 0xfd, 0x12, 0xf6, 0x0b, 0x21,
  0xec, 0xef, 0x01, 0x09, 0x08, 0xea, 0xe5, 0xe1, 0x08, 0x00, 0x13, 0xfd,
  0x08, 0x03, 0xda, 0x2c, 0xe5, 0xfc, 0x19, 0x2c, 0xe8, 0xfc, 0xfb, 0x0c,
  0x1b, 0x23, 0xef, 0xfb, 0x19, 0xfe, 0xf6, 0xee, 0x07, 0x08, 0xf4, 0xea,
  0xd5, 0xea, 0xf1, 0xf2, 0xd3, 0xf2, 0xfb, 0x06, 0xfd, 0x11, 0xef, 0x0f,
  0xda, 0x01, 0xfe, 0xde, 0xe5, 0x1d, 0xfa, 0x0c, 0xf0, 0xe9, 0xe0, 0xf8,
  0x11, 0x31, 0x03, 0x21, 0x02, 0x05, 0x25, 0xec, 0xca, 0xf8, 0x03, 0xeb,
  0xf2, 0xfb, 0x13, 0x34, 0x15, 0xfd, 0x15, 0xe4, 0x29, 0xfc, 0x07, 0xf6,
  0xe2, 0xd6, 0xee, 0xe6, 0x1f, 0xe0, 0xfe, 0xde, 0x09, 0x11, 0xd6, 0xe9,
  0xeb, 0xe0, 0x1c, 0xf6, 0x33, 0x05, 0xff, 0x08, 0x0f, 0x01, 0xf7, 0xf7,
  0x12, 0xd3, 0x22, 0xf3, 0x13, 0xfa, 0xea, 0x02, 0xd9, 0x30, 0x0c, 0x0d,
  0x03, 0xfa, 0xfe, 0xfa, 0x07, 0x15, 0xde, 0xf6, 0xf8, 0xd9, 0x2d, 0x19,
  0x09, 0xc7, 0xf9, 0x13, 0x05, 0x11, 0xf4, 0xf8, 0xf9, 0xdb, 0x33, 0x0c,
  0xf2, 0xc5, 0xeb, 0xe0, 0xe1, 0xd9, 0x12, 0x07, 0xdb, 0xf5, 0x18, 0xfb,
  0xeb, 0x1d, 0x24, 0xf7, 0xe9, 0xf3, 0xf7, 0xfe, 0xe2, 0x1b, 0x17, 0x31,
  0xf9, 0x04, 0x15, 0xea, 0x05, 0xe9, 0x1f, 0xf1, 0xe0, 0x1e, 0x01, 0x0d,
  0xf4, 0xf4, 0xf8, 0x05, 0x19, 0x12, 0x0f, 0xec, 0x0c, 0xfd, 0x1f, 0xec,
  0x12, 0xe7, 0x0a, 0x0e, 0x0f, 0xec, 0x02, 0x01, 0xd9, 0xf8, 0x03, 0xf7,
  0xf9, 0xe1, 0xcb, 0xd6, 0x14, 0xf3, 0x0d, 0xe7, 0xd6, 0x2a, 0x2b, 0x1b,
  0xf4, 0x0c, 0x1d, 0x24, 0xf3, 0xf4, 0xe9, 0x08, 0xf1, 0xe8, 0x17, 0x00,
  0xf3, 0xf9, 0x02, 0x33, 0xdf, 0x1d, 0x2f, 0xe8, 0x2d, 0xfc, 0xfa, 0xde,
  0x24, 0xfd, 0xff, 0xfb, 0xf6, 0x21, 0xee, 0xd4, 0xf7, 0xe5, 0xfa, 0x0b,
  0xe3, 0x25, 0xce, 0x0d, 0x1d, 0x20, 0x0d, 0xe4, 0xfa, 0x0b, 0xfa, 0x00,
  0xe8, 0xfb, 0x03, 0xdd, 0x01, 0x1a, 0xe6, 0xf3, 0x30, 0x0a, 0x0d, 0x1e,
  0xe2, 0x05, 0xf2, 0xe9, 0x09, 0xf6, 0xcc, 0xfb, 0x0b, 0xce, 0xef, 0xf7,
  0xe7, 0xf8, 0x0f, 0x10, 0xef, 0x07, 0xc9, 0x0a, 0x04, 0x15, 0xed, 0xf3,
  0x2c, 0x00, 0xd1, 0xff, 0x0d, 0x12, 0xe6, 0x29, 0xd3, 0x03, 0x17, 0xe6,
  0x14, 0xe9, 0x09, 0x1f, 0xf3, 0x06, 0xe2, 0xc3, 0xfc, 0xf5, 0x21, 0x1c,
  0xe3, 0xef, 0xe5, 0xed, 0xf3, 0xd4, 0xde, 0xb7, 0xf6, 0x0e, 0x0e, 0x17,
  0x10, 0xcc, 0x0d, 0x19, 0x01, 0xfb, 0xe5, 0xe3, 0x00, 0x10, 0xf6, 0x02,
  0x07, 0xb5, 0xc9, 0x1c, 0x04, 0x30, 0xf9, 0xc9, 0xe0, 0xf8, 0xeb, 0x05,
  0x24, 0xca, 0x02, 0xe2, 0xf5, 0xf8, 0x1a, 0xc4, 0x1d, 0x2b, 0x28, 0x18,
  0x07, 0x9f, 0x1e, 0xdf, 0xef, 0x19, 0x1a, 0xeb, 0x0a, 0x1d, 0x2c, 0x19,
  0x15, 0xcc, 0x14, 0x13, 0x28, 0x0a, 0x04, 0xe7, 0xc6, 0x30, 0x21, 0x1f,
  0x10, 0xca, 0x27, 0x26, 0xff, 0x0e, 0x35, 0xda, 0x1b, 0xe8, 0xfe, 0x0d,
  0x20, 0xda, 0x01, 0xf0, 0xfa, 0x0d, 0x33, 0xc0, 0xfd, 0x1c, 0xef, 0x02,
  0xef, 0xea, 0xd5, 0xea, 0xff, 0xed, 0x21, 0xd8, 0x00, 0x13, 0xf4, 0x26,
  0x06, 0x02, 0xee, 0x19, 0x20, 0x01, 0x01, 0x04, 0x0b, 0xec, 0xf0, 0xfd,
  0x05, 0xfd, 0x07, 0xf9, 0xf1, 0x32, 0xf1, 0x33, 0x02, 0xf2, 0x00, 0x22,
  0xe2, 0x07, 0x15, 0xd6, 0xe6, 0xee, 0xea, 0xe4, 0xd0, 0xec, 0x08, 0x28,
  0x1a, 0xff, 0xfb, 0xef, 0x1c, 0xe2, 0xfe, 0xff, 0xd9, 0x08, 0x00, 0xfb,
  0x09, 0xfc, 0x27, 0x07, 0x10, 0x1e, 0xe0, 0xd1, 0x00, 0x15, 0xd4, 0xe9,
  0xcd, 0xf8, 0xf1, 0x2b, 0x12, 0xd9, 0x11, 0xf9, 0xf1, 0xf2, 0xe9, 0xfa,
  0xf9, 0xf8, 0x26, 0xf4, 0x1a, 0x1b, 0xd4, 0x0d, 0x0a, 0x01, 0x10, 0x22,
  0xea, 0x2c, 0x13, 0x1a, 0x07, 0xe9, 0x06, 0x0e, 0xed, 0x1a, 0x0b, 0x1b,
  0xeb, 0xf0, 0xe1, 0xe3, 0xfd, 0xcf, 0x04, 0x0a, 0xf8, 0x10, 0x25, 0xdb,
  0x35, 0x0c, 0xf5, 0xf1, 0x09, 0xfd, 0x04, 0x1b, 0xec, 0xff, 0x04, 0x0d,
  0xf9, 0x22, 0x29, 0x16, 0x1e, 0x15, 0xd4, 0x23, 0xda, 0x22, 0x0f, 0x2a,
  0xee, 0xfc, 0x0d, 0x08, 0x31, 0xd6, 0xe6, 0x21, 0x18, 0xeb, 0xe8, 0xef,
  0x12, 0xd4, 0x01, 0xda, 0x02, 0x14, 0x2a, 0xf7, 0x1e, 0x12, 0xef, 0xf2,
  0xee, 0x14, 0xff, 0x1c, 0x0c, 0x35, 0xfb, 0x05, 0xd2, 0x03, 0xf7, 0xfc,
  0xcc, 0xdf, 0x01, 0x1e, 0x0a, 0xec, 0x00, 0x1e, 0x13, 0xf4, 0xfe, 0x12,
  0x04, 0x10, 0xf6, 0x06, 0x0e, 0x03, 0xe7, 0xea, 0x0d, 0xee, 0xf3, 0x10,
  0xf3, 0xed, 0x02, 0x11, 0x13, 0xe0, 0xe7, 0xca, 0x25, 0x0e, 0xe9, 0xe5,
  0xf2, 0x04, 0xe2, 0x0f, 0x12, 0x12, 0xf8, 0xf3, 0xce, 0x2d, 0xd8, 0xe3,
  0xcf, 0x0d, 0xf3, 0xdd, 0x0d, 0x08, 0xff, 0xdc, 0x29, 0xd6, 0xdc, 0x14,
  0x05, 0x1e, 0x11, 0x1a, 0x08, 0xfe, 0xef, 0xf6, 0xff, 0x19, 0x1c, 0x24,
  0x17, 0xce, 0xef, 0x0d, 0xf8, 0x10, 0xe2, 0xf4, 0xed, 0xf4, 0x06, 0x2d,
  0x06, 0x0e, 0x13, 0x34, 0x14, 0x20, 0x1a, 0xe5, 0x10, 0x35, 0x07, 0xdd,
  0x18, 0xca, 0x13, 0x33, 0xf8, 0x07, 0xff, 0xf4, 0xfb, 0xd0, 0xdf, 0xf5,
  0x0e, 0xf2, 0x10, 0xe5, 0x1c, 0xee, 0x06, 0xed, 0xf5, 0x00, 0xf8, 0x0e,
  0x17, 0xe7, 0x03, 0xfb, 0xe1, 0xff, 0x14, 0x0d, 0xd3, 0xe5, 0x27, 0xfd,
  0xf1, 0xce, 0xfc, 0x01, 0x07, 0xf1, 0xf2, 0xee, 0x16, 0x0e, 0x1c, 0xf6,
  0x2b, 0x09, 0xd4, 0x25, 0x28, 0x26, 0xfb, 0xc3, 0xff, 0x0a, 0xff, 0x19,
  0x05, 0xdf, 0xf0, 0xdc, 0xf1, 0xe8, 0x2b, 0xc7, 0x1d, 0xda, 0xf4, 0x01,
  0xfb, 0xe9, 0x00, 0x0f, 0x06, 0xf2, 0xda, 0xf7, 0x16, 0xfb, 0xfc, 0x0f,
  0xeb, 0xcb, 0xd1, 0xf2, 0x20, 0x1d, 0x14, 0xbf, 0xfd, 0x0d, 0xdb, 0xd2,
  0x1d, 0xe7, 0x1c, 0xff, 0x21, 0xf3, 0xe2, 0x12, 0x1c, 0xf5, 0x0e, 0xca,
  0x1e, 0x12, 0x1c, 0xd6, 0x03, 0x2c, 0x14, 0xeb, 0xe5, 0x0c, 0x07, 0x19,
  0x07, 0x29, 0x10, 0x0b, 0xf8, 0xdb, 0xe9, 0x09, 0xf2, 0xe6, 0xef, 0xf6,
  0xf2, 0x05, 0xe0, 0xe6, 0x14, 0x1a, 0xf7, 0xff, 0x14, 0x12, 0xdd, 0x08,
  0x05, 0xfc, 0xf0, 0x17, 0x0f, 0xdd, 0xdd, 0x0e, 0xf5, 0xd1, 0xf0, 0xcd,
  0x11, 0xf7, 0x1d, 0x01, 0xe4, 0x00, 0x07, 0x16, 0xf2, 0xd8, 0xf5, 0xf7,
  0x05, 0x00, 0x03, 0x01, 0x00, 0xd2, 0xe2, 0x0c, 0xeb, 0xee, 0xfb, 0xf6,
  0x21, 0xec, 0x10, 0xe2, 0xf4, 0xeb, 0xfe, 0xe5, 0xdc, 0xf7, 0xe3, 0xf4,
  0xea, 0x0b, 0xf6, 0x09, 0x15, 0x15, 0x07, 0xfd, 0x0e, 0xff, 0x0d, 0xf5,
  0x13, 0xe4, 0xe0, 0xd9, 0x08, 0x28, 0xf3, 0x14, 0xf3, 0xe9, 0x1b, 0x11,
  0xde, 0xd8, 0xee, 0xec, 0x08, 0x17, 0x31, 0xe6, 0x28, 0xd9, 0x0e, 0x09,
  0xdc, 0xf9, 0x02, 0xfa, 0xf8, 0xf7, 0xe9, 0x13, 0x0a, 0x04, 0xf8, 0x2d,
  0x23, 0x1c, 0xe1, 0xfc, 0x08, 0x15, 0xef, 0xfc, 0xf5, 0xe6, 0xf7, 0xd2,
  0x00, 0xf6, 0x06, 0xec, 0x0e, 0x28, 0xdf, 0xfe, 0xe2, 0x01, 0x04, 0xd5,
  0xef, 0xd8, 0x04, 0xf7, 0x0e, 0xe4, 0x06, 0xf2, 0xf0, 0x08, 0xd9, 0x0e,
  0xe7, 0xe3, 0x15, 0x23, 0x20, 0xeb, 0x16, 0xdc, 0x31, 0xcd, 0xfc, 0x32,
  0x1a, 0xe2, 0xdf, 0xee, 0xfe, 0x0f, 0x36, 0xf8, 0x1a, 0x13, 0x03, 0xd3,
  0xfa, 0x01, 0xf7, 0x0e, 0x10, 0x1f, 0xf7, 0xc2, 0x02, 0xe9, 0x10, 0x00,
  0xe9, 0x09, 0x0d, 0xf6, 0xfb, 0x24, 0xf5, 0xdc, 0xfc, 0x12, 0x2d, 0x16,
  0xf4, 0xf5, 0x31, 0xf2, 0x06, 0x0a, 0xfe, 0x03, 0xf7, 0x07, 0xfc, 0xf5,
  0xd9, 0xcb, 0x09, 0xf7, 0xe2, 0x0b, 0xfa, 0x08, 0x14, 0xf1, 0x17, 0x0b,
  0x15, 0xe4, 0xe7, 0xe8, 0x11, 0xed, 0x0e, 0x0f, 0xf4, 0xe4, 0xe0, 0xea,
  0x03, 0x1d, 0x12, 0x0c, 0xcf, 0x22, 0xf6, 0x0c, 0x0f, 0x0c, 0xdf, 0xdf,
  0xfb, 0xd1, 0x02, 0x21, 0xfa, 0xee, 0xf7, 0xcb, 0xe9, 0xea, 0xda, 0xf7,
  0xf2, 0x1d, 0xfa, 0x32, 0x0c, 0xf4, 0x18, 0xf3, 0xfe, 0x0e, 0x09, 0xe2,
  0xfe, 0xfb, 0x12, 0xfd, 0xeb, 0x18, 0xf9, 0xf7, 0xde, 0x04, 0x0f, 0xef,
  0xda, 0x0b, 0x05, 0xdf, 0xd0, 0xfd, 0xf2, 0x00, 0xf0, 0xd9, 0xe4, 0x29,
  0x00, 0x12, 0xf4, 0xf6, 0xf0, 0xf0, 0xfa, 0xd1, 0x18, 0x09, 0x07, 0xdf,
  0xe0, 0x08, 0xeb, 0xe3, 0xf5, 0x31, 0x0a, 0x1b, 0x0f, 0xfb, 0x03, 0xf5,
  0xe1, 0x21, 0xd2, 0xf2, 0x0f, 0xf9, 0xe3, 0x01, 0xe5, 0x08, 0xdf, 0x1b,
  0xdd, 0x02, 0x25, 0x0f, 0xff, 0x18, 0xf5, 0xf7, 0xe5, 0xdd, 0xe4, 0x12,
  0x15, 0xe0, 0xec, 0x22, 0x01, 0xfd, 0xda, 0xda, 0x12, 0x25, 0xf9, 0x20,
  0x0c, 0xf3, 0x15, 0xcf, 0xf4, 0xe0, 0xf2, 0xe2, 0x09, 0xda, 0x0f, 0x0d,
  0xe0, 0x02, 0xff, 0xfb, 0x24, 0x07, 0x04, 0xd1, 0x30, 0xf2, 0xf3, 0x18,
  0xf1, 0xca, 0x29, 0xff, 0x11, 0x14, 0x03, 0xf3, 0xfe, 0x0d, 0x0f, 0x15,
  0x17, 0xb8, 0x0a, 0x09, 0x1e, 0xf3, 0xff, 0xd8, 0xe3, 0x07, 0x2e, 0xfa,
  0x05, 0xf2, 0xc5, 0xd9, 0x1b, 0xf0, 0xfd, 0xe0, 0xe1, 0x21, 0xff, 0x0e,
  0xe6, 0xc5, 0xd0, 0x33, 0x23, 0xfc, 0xfb, 0xd2, 0x05, 0x07, 0x04, 0x34,
  0xdd, 0xd3, 0x01, 0xff, 0x0f, 0xec, 0x10, 0xe5, 0xf8, 0x1f, 0xf1, 0xf1,
  0xe6, 0xc0, 0x14, 0x1a, 0xf0, 0x1a, 0xc7, 0xb5, 0x28, 0x11, 0x15, 0xfd,
  0x1b, 0x14, 0xf2, 0x0d, 0xec, 0x05, 0xea, 0x10, 0xee, 0x0f, 0x0a, 0xfc,
  0xe4, 0x2d, 0xff, 0xf9, 0xf9, 0xef, 0xee, 0x13, 0x11, 0x11, 0xe6, 0x13,
  0x0a, 0x01, 0x09, 0x02, 0x06, 0xce, 0xe7, 0x14, 0x13, 0x10, 0xf5, 0x0e,
  0xff, 0x3a, 0x00, 0x01, 0x36, 0xee, 0x03, 0x07, 0x03, 0x14, 0xf3, 0x18,
  0x13, 0xf0, 0xe2, 0xdc, 0x04, 0x23, 0x13, 0x30, 0x2a, 0xcf, 0x07, 0x27,
  0xf6, 0x33, 0x1b, 0xdd, 0x12, 0x07, 0xd0, 0x2c, 0x25, 0x0c, 0x0d, 0x04,
  0x21, 0x34, 0x2b, 0xf0, 0x0d, 0x08, 0xf6, 0xe7, 0xfd, 0xd4, 0xfd, 0xfd,
  0x0a, 0x1c, 0x0f, 0xdc, 0xf3, 0xfb, 0xe7, 0x1f, 0x1d, 0x17, 0xdb, 0xe2,
  0xd8, 0x09, 0xe5, 0x05, 0x1b, 0x0f, 0xd3, 0xf1, 0x17, 0x21, 0x0f, 0xf4,
  0xfc, 0x07, 0x37, 0xe2, 0x2b, 0xea, 0xdd, 0x2c, 0xf6, 0x01, 0xcf, 0xce,
  0x13, 0x20, 0x07, 0x19, 0x05, 0xf2, 0x22, 0xe7, 0xff, 0x09, 0x04, 0x0c,
  0xdb, 0xed, 0x08, 0xff, 0xef, 0xeb, 0x07, 0xf7, 0xf5, 0x15, 0x11, 0x12,
  0x03, 0x04, 0x0d, 0x28, 0xf9, 0x15, 0x31, 0xe1, 0x19, 0x05, 0xec, 0x18,
  0x10, 0x13, 0x15, 0x13, 0x00, 0x00, 0x28, 0x12, 0xf9, 0x1a, 0xdc, 0xfc,
  0xec, 0xe8, 0xd5, 0x14, 0xe0, 0x0f, 0xef, 0xf6, 0xf8, 0x2d, 0x10, 0x27,
  0xf1, 0xc6, 0x03, 0xf1, 0x1f, 0x01, 0x02, 0xdf, 0xcf, 0x0a, 0xeb, 0x0f,
  0x00, 0xf2, 0x05, 0x23, 0x08, 0xd8, 0xf6, 0xfe, 0xe4, 0xd9, 0x11, 0x19,
  0x2a, 0xfc, 0x07, 0x08, 0xf5, 0xe3, 0x07, 0x1a, 0x02, 0x0f, 0xd4, 0x02,
  0x02, 0xd3, 0x13, 0x2a, 0x1c, 0x13, 0xf4, 0xff, 0x0c, 0x32, 0x10, 0xd6,
  0x24, 0xdb, 0xee, 0x17, 0x0b, 0xce, 0xfa, 0xd9, 0xdf, 0x2e, 0xd8, 0x33,
  0xe0, 0xdd, 0x0f, 0x15, 0xfa, 0x06, 0x28, 0x08, 0xe9, 0x1a, 0xdf, 0x19,
  0xee, 0x1f, 0x05, 0xd9, 0x16, 0xf3, 0x14, 0x09, 0x00, 0xde, 0x0d, 0xfe,
  0x13, 0xfc, 0x27, 0xd4, 0x09, 0xf7, 0x0e, 0x0d, 0x24, 0x17, 0xf4, 0xff,
  0x25, 0x02, 0xe3, 0x0b, 0x17, 0x32, 0xdb, 0xf3, 0x27, 0x0e, 0xe4, 0x06,
  0x04, 0x09, 0xf1, 0xed, 0x1a, 0x09, 0x11, 0x04, 0xd6, 0x09, 0x04, 0x26,
  0xdc, 0x13, 0xd5, 0x1f, 0x13, 0xc9, 0x10, 0x09, 0xe3, 0xf3, 0x08, 0xeb,
  0x18, 0xd1, 0xf0, 0xf2, 0x1f, 0xdc, 0x05, 0x0a, 0x19, 0x1c, 0x0f, 0x2d,
  0x08, 0xff, 0xd4, 0x27, 0x0c, 0xf0, 0x19, 0x1b, 0xfd, 0xe4, 0xdf, 0x0a,
  0xf3, 0x07, 0xff, 0x13, 0xf5, 0x22, 0xd6, 0xf0, 0xfb, 0x17, 0x24, 0xf2,
  0x06, 0xeb, 0x06, 0xd5, 0xdc, 0x28, 0x0e, 0xf4, 0xfc, 0xfb, 0x0d, 0x08,
  0xce, 0x30, 0x0c, 0xea, 0x02, 0x10, 0xf7, 0xf2, 0x0a, 0xcb, 0xce, 0x1e,
  0xf3, 0xe7, 0xcb, 0x02, 0x1b, 0xf1, 0xf2, 0x02, 0x1e, 0x2a, 0x05, 0xdd,
  0xe6, 0xdd, 0xe1, 0x03, 0xe8, 0x03, 0x29, 0x10, 0xf0, 0x01, 0xfe, 0x2d,
  0xe6, 0x30, 0xfb, 0x34, 0x1d, 0x23, 0xf6, 0xfc, 0xf5, 0xf3, 0xed, 0xee,
  0x2a, 0xf9, 0xfe, 0x02, 0xf0, 0xf9, 0x1b, 0x04, 0x19, 0x0f, 0xf5, 0xf7,
  0x2e, 0x0b, 0x26, 0xe7, 0x25, 0x14, 0x10, 0x14, 0xf4, 0x16, 0xef, 0x28,
  0xe5, 0x07, 0x18, 0x08, 0x1b, 0x1f, 0x0a, 0xf6, 0xf4, 0xf7, 0xd1, 0xfa,
  0xeb, 0xfb, 0xdb, 0xcd, 0x0e, 0xe2, 0xfc, 0xef, 0xf0, 0x06, 0x06, 0xf5,
  0xf6, 0xf3, 0x12, 0xe8, 0x10, 0x12, 0x30, 0xfb, 0xfc, 0xed, 0x21, 0x04,
  0x11, 0x00, 0x07, 0xd2, 0xeb, 0x2a, 0xf9, 0x1d, 0xd8, 0x03, 0x1b, 0x29,
  0x24, 0x0e, 0x1c, 0xf8, 0x0d, 0x00, 0x01, 0xe4, 0xf7, 0x23, 0xe3, 0x06,
  0x0a, 0x2d, 0x03, 0x27, 0x10, 0xf7, 0x13, 0xfc, 0xe6, 0xfc, 0xf7, 0xf6,
  0x3e, 0x01, 0x02, 0x1a, 0xdf, 0xe7, 0x1f, 0x14, 0x1a, 0xd5, 0x08, 0x09,
  0xf6, 0xfe, 0xf0, 0x11, 0x20, 0xde, 0x40, 0x18, 0x22, 0x0c, 0xfa, 0xeb,
  0xf7, 0x2c, 0xe2, 0x02, 0x00, 0x32, 0xf7, 0xd8, 0x2c, 0x13, 0x30, 0x1d,
  0xed, 0x14, 0x31, 0x2c, 0x1b, 0x05, 0xfd, 0x32, 0x06, 0xef, 0x0b, 0xd5,
  0x14, 0xf0, 0x20, 0x13, 0xff, 0x21, 0x2c, 0xf6, 0xed, 0x0e, 0x13, 0x21,
  0xfe, 0x1d, 0x18, 0x14, 0x26, 0xef, 0x0d, 0x0a, 0x3c, 0xec, 0x12, 0xf0,
  0x1a, 0x02, 0x26, 0x06, 0x08, 0xec, 0x27, 0x12, 0x31, 0x0a, 0x30, 0x0c,
  0x09, 0x43, 0x0d, 0xce, 0xd3, 0x0b, 0xf8, 0x17, 0xfc, 0xf0, 0xfd, 0xe5,
  0x23, 0xfd, 0xda, 0xff, 0x2f, 0xfd, 0xd2, 0x2a, 0x0a, 0x2d, 0xf0, 0x29,
  0x2b, 0x15, 0x00, 0x07, 0xe1, 0x24, 0x09, 0x0c, 0xf6, 0x0f, 0xce, 0x0d,
  0x0b, 0xeb, 0xec, 0x0e, 0xe0, 0xdb, 0x27, 0x2f, 0x17, 0xfd, 0x0c, 0x0b,
  0x2f, 0xfc, 0xd5, 0x0e, 0x0c, 0x0e, 0xfd, 0xe4, 0xfe, 0x1c, 0x14, 0xed,
  0x09, 0xe9, 0x17, 0x11, 0x1b, 0xf9, 0x09, 0x1a, 0x0b, 0xd4, 0x13, 0xe8,
  0x09, 0xe3, 0xdd, 0x08, 0xf6, 0x12, 0xdd, 0x20, 0xde, 0x23, 0xf0, 0xef,
  0x24, 0x11, 0xef, 0xfd, 0xf2, 0xef, 0x18, 0xfa, 0x1e, 0xfc, 0x27, 0x01,
  0x23, 0x0f, 0x0a, 0x30, 0xd7, 0x0c, 0x0e, 0x00, 0x0b, 0xf0, 0x10, 0x13,
  0xe0, 0x1e, 0x00, 0x15, 0x13, 0xfe, 0x04, 0xdd, 0xe0, 0xe5, 0xd2, 0xf7,
  0xe5, 0xfd, 0xf3, 0xf4, 0x29, 0xf5, 0xf0, 0x05, 0x03, 0xfc, 0x06, 0xde,
  0xf1, 0x1b, 0xd4, 0x02, 0x08, 0xdb, 0xcc, 0xfc, 0xf5, 0xda, 0xe0, 0xf4,
  0xff, 0xfb, 0x21, 0x0e, 0x34, 0x2d, 0x12, 0x02, 0xff, 0xcf, 0x14, 0x22,
  0xdd, 0xf2, 0xf2, 0xef, 0x36, 0x22, 0xe4, 0x0a, 0xf6, 0x32, 0x29, 0x1c,
  0xdb, 0x03, 0x1b, 0x21, 0xd1, 0xed, 0xf9, 0x16, 0x14, 0x0c, 0xfe, 0xe0,
  0xf2, 0xec, 0xf1, 0xfe, 0x19, 0x08, 0xfb, 0xed, 0xfb, 0x1c, 0x13, 0xec,
  0x23, 0x02, 0x2b, 0xe0, 0x0f, 0xd9, 0xf8, 0xe5, 0xdc, 0x01, 0xdf, 0x1a,
  0x0d, 0x1c, 0xf7, 0xe6, 0x19, 0x11, 0xf6, 0x0b, 0xce, 0x0f, 0xe0, 0xd9,
  0xf7, 0x05, 0xfb, 0xf9, 0xff, 0x0e, 0xea, 0x09, 0x20, 0x09, 0xfa, 0x0a,
  0x1b, 0x06, 0x13, 0xe4, 0x0c, 0xfa, 0xed, 0xfe, 0xeb, 0x1a, 0xda, 0xe1,
  0x03, 0x16, 0xec, 0xd1, 0xe9, 0xca, 0xdc, 0xf1, 0x18, 0x13, 0x21, 0x30,
  0x13, 0x29, 0x13, 0x11, 0xfd, 0xfa, 0x05, 0x1f, 0x37, 0x06, 0x07, 0xed,
  0xfe, 0x31, 0x1e, 0x03, 0xf5, 0xdd, 0xe4, 0x38, 0xf7, 0x1c, 0xfe, 0x0f,
  0x03, 0x4d, 0x01, 0x04, 0x20, 0x0c, 0x28, 0x38, 0x10, 0xee, 0xfe, 0xfe,
  0xf5, 0x1b, 0x27, 0xff, 0xde, 0x16, 0x06, 0x58, 0x0a, 0xfa, 0x22, 0x04,
  0x12, 0x14, 0x32, 0xd9, 0x26, 0x13, 0x04, 0x29, 0x0d, 0x0f, 0xea, 0x0f,
  0x3e, 0x31, 0x11, 0xe1, 0x0d, 0xea, 0x0f, 0x2b, 0x21, 0xd7, 0x04, 0xf7,
  0xe2, 0x4e, 0x1c, 0xe3, 0x06, 0xd8, 0x15, 0x3d, 0x36, 0x05, 0x06, 0x1d,
  0x25, 0x2f, 0x2d, 0xe8, 0x02, 0x02, 0x05, 0x2d, 0x24, 0xed, 0x15, 0x0d,
  0x2e, 0x3f, 0x1c, 0xea, 0x08, 0xf5, 0x28, 0x21, 0x34, 0x06, 0xf9, 0x12,
  0x15, 0x30, 0x36, 0xfc, 0xe7, 0xe8, 0x23, 0x6f, 0x2c, 0xf4, 0xf3, 0x10,
  0xe1, 0xcf, 0x03, 0x02, 0xdd, 0x15, 0x04, 0xd3, 0xdf, 0x20, 0xe4, 0xe7,
  0x10, 0x07, 0x03, 0xf0, 0xfb, 0xef, 0xf2, 0xff, 0xf5, 0xef, 0xea, 0x0f,
  0x1f, 0xd9, 0xd9, 0xce, 0xe6, 0x03, 0x05, 0xe8, 0x00, 0xfb, 0xdd, 0xff,
  0x02, 0xea, 0x15, 0xf8, 0xf9, 0xee, 0x02, 0xc7, 0x10, 0x0c, 0x10, 0x0b,
  0x11, 0x02, 0x08, 0x05, 0x32, 0x02, 0x1a, 0xc2, 0xd8, 0xe3, 0x06, 0xf1,
  0x21, 0xe6, 0x18, 0x15, 0xd9, 0x0a, 0x10, 0xe2, 0xe9, 0xfa, 0x0b, 0xe0,
  0x00, 0x06, 0xe8, 0xe2, 0xd5, 0x01, 0x21, 0xf9, 0x25, 0x26, 0x2f, 0xd1,
  0x12, 0xc6, 0x16, 0x0b, 0xed, 0x03, 0xf1, 0xe1, 0xea, 0x04, 0x15, 0x19,
  0x0d, 0xc4, 0x14, 0x05, 0xcd, 0xdb, 0x12, 0xf3, 0xf7, 0x03, 0xea, 0xf7,
  0xdf, 0xd4, 0xf9, 0xf0, 0xd3, 0xf7, 0xe1, 0xfb, 0xf6, 0xfb, 0x0e, 0xe5,
  0x0b, 0x05, 0xee, 0x31, 0x10, 0x05, 0x1a, 0x2b, 0x26, 0xeb, 0xf6, 0xd1,
  0x09, 0x0b, 0x10, 0x1a, 0x02, 0xf7, 0x17, 0xf8, 0xf1, 0xec, 0x17, 0x13,
  0x1a, 0xdf, 0xee, 0x16, 0x18, 0xfc, 0x03, 0x13, 0xfa, 0xd6, 0xfa, 0x1e,
  0xff, 0x0c, 0x0d, 0x01, 0x22, 0xec, 0xda, 0xdf, 0x2b, 0xff, 0xfc, 0xfa,
  0xfe, 0xf1, 0x1b, 0xde, 0x13, 0x18, 0x28, 0x10, 0xd0, 0x16, 0xf7, 0x15,
  0x23, 0x28, 0xdb, 0x20, 0xd1, 0xd1, 0x01, 0xf8, 0xf6, 0xf7, 0xe7, 0xf0,
  0xe7, 0xdb, 0xde, 0xe2, 0xe9, 0xf6, 0xfa, 0xcc, 0xf2, 0xdf, 0x0f, 0xe4,
  0xfa, 0xf8, 0x04, 0x21, 0x15, 0x16, 0xfe, 0xed, 0xf1, 0xe8, 0x2d, 0x0d,
  0xfb, 0xe1, 0xd4, 0x22, 0x00, 0x16, 0xf9, 0xf5, 0xd7, 0xee, 0xee, 0xf0,
  0x12, 0x16, 0x0d, 0xcc, 0xf4, 0xd0, 0xfb, 0xf1, 0x24, 0x1f, 0x33, 0x13,
  0xf9, 0x23, 0xeb, 0x2d, 0xe2, 0x13, 0xff, 0xe1, 0xdf, 0xfd, 0x2b, 0xfa,
  0xe3, 0xf0, 0x08, 0xf3, 0x0d, 0x06, 0xd9, 0xff, 0xfc, 0xec, 0xe4, 0xeb,
  0x00, 0xf8, 0xd5, 0x1e, 0x0a, 0xf6, 0x1a, 0x11, 0x16, 0xf9, 0x18, 0xfd,
  0xfd, 0x10, 0xf6, 0x0b, 0x0c, 0xed, 0x06, 0x02, 0x16, 0xcf, 0x15, 0xf5,
  0xf9, 0xe1, 0xee, 0x1b, 0x24, 0x32, 0xd1, 0x18, 0x14, 0x19, 0xf9, 0x22,
  0x35, 0x06, 0xed, 0x04, 0xe0, 0x03, 0xff, 0x23, 0x0b, 0xe7, 0xf0, 0x1c,
  0xfe, 0x16, 0xf1, 0xf7, 0x0b, 0x33, 0xd8, 0xe7, 0xee, 0x14, 0x03, 0x02,
  0xe9, 0xcc, 0xe7, 0xf4, 0x21, 0xf1, 0xfb, 0x13, 0x16, 0x0b, 0xf4, 0xf5,
  0x06, 0x24, 0xd0, 0x06, 0xee, 0xd1, 0xee, 0x0e, 0xf6, 0x19, 0x19, 0x22,
  0x00, 0xf5, 0x00, 0xe2, 0x19, 0xcf, 0xe4, 0x00, 0x05, 0xed, 0x2c, 0x11,
  0xe1, 0x1b, 0x15, 0xef, 0x02, 0xcb, 0xea, 0x18, 0x01, 0xe3, 0x17, 0xd2,
  0xec, 0x1f, 0x30, 0x00, 0x05, 0x2e, 0xd9, 0xfa, 0xea, 0x05, 0x02, 0x09,
  0xda, 0x01, 0xf1, 0x04, 0xef, 0xec, 0xd8, 0xce, 0x0d, 0xf3, 0x0e, 0x02,
  0x28, 0x03, 0x06, 0x1b, 0x0c, 0x07, 0xe6, 0xe3, 0xf7, 0x01, 0x06, 0xeb,
  0xe1, 0x32, 0x02, 0xe6, 0x17, 0x0b, 0xfd, 0x05, 0xff, 0xe5, 0xfb, 0x18,
  0x0b, 0xff, 0xd7, 0xfe, 0xf5, 0xf4, 0x17, 0xf7, 0xf4, 0xf0, 0xfd, 0xf7,
  0xce, 0xf4, 0x02, 0xf3, 0x26, 0x0d, 0xe8, 0x16, 0xf3, 0x0c, 0xed, 0x08,
  0xde, 0x12, 0xea, 0xfd, 0x17, 0xca, 0xf8, 0xf5, 0xdc, 0x2b, 0xe0, 0xe0,
  0x04, 0x0c, 0xfe, 0xe5, 0x06, 0xf7, 0x05, 0x01, 0x10, 0xe9, 0x0b, 0xf4,
  0xd9, 0xf6, 0x2b, 0xcf, 0x09, 0x04, 0x1b, 0x11, 0xfe, 0xf2, 0x16, 0xec,
  0x05, 0x13, 0x19, 0xd0, 0xfc, 0x0f, 0x0c, 0x0b, 0x2b, 0x01, 0xe5, 0x06,
  0x0d, 0x30, 0x06, 0xea, 0x12, 0xf7, 0xe8, 0x0d, 0x3c, 0xf5, 0xfb, 0x13,
  0x0b, 0x48, 0x28, 0xdf, 0xd7, 0x0b, 0x08, 0xf7, 0xf4, 0x1b, 0x29, 0x10,
  0xdf, 0x0f, 0x0c, 0xe1, 0x16, 0xf2, 0xf4, 0x1a, 0x1b, 0x06, 0x01, 0x05,
  0x00, 0x3d, 0x18, 0x09, 0x0a, 0x16, 0x10, 0x3b, 0xfd, 0xf5, 0xdb, 0x03,
  0x05, 0x11, 0x11, 0x0c, 0xf4, 0xf1, 0x0f, 0x48, 0x43, 0xf0, 0xfc, 0x03,
  0x0c, 0x3c, 0xe6, 0xee, 0xdd, 0x30, 0x20, 0x23, 0x01, 0x19, 0x1f, 0xf3,
  0xdb, 0x17, 0x20, 0x08, 0xed, 0x07, 0xed, 0x32, 0x2a, 0xe1, 0x1b, 0x10,
  0xc8, 0x3c, 0x09, 0xf5, 0x18, 0xcc, 0xf4, 0x16, 0x01, 0x09, 0xf4, 0xf3,
  0xe2, 0x32, 0x1f, 0x13, 0x1c, 0x07, 0x30, 0x1e, 0x20, 0xe5, 0xef, 0xf6,
  0x11, 0x2d, 0xf7, 0x10, 0x17, 0x00, 0x27, 0x37, 0xf8, 0x12, 0xf5, 0x0a,
  0x1b, 0x01, 0xf0, 0x0d, 0xc9, 0xf7, 0x35, 0x4c, 0x16, 0x38, 0x1d, 0xd4,
  0x30, 0x0b, 0x04, 0x28, 0xea, 0x08, 0x37, 0x28, 0x16, 0xee, 0x10, 0x0f,
  0x21, 0x27, 0xff, 0xe1, 0xe3, 0xfb, 0x0a, 0x1d, 0xf1, 0x00, 0x01, 0x2c,
  0x44, 0x37, 0x17, 0x04, 0x18, 0xf1, 0x4c, 0x50, 0x28, 0xe3, 0xe0, 0xfb,
  0xfd, 0x32, 0x07, 0xde, 0x28, 0xe4, 0x28, 0x36, 0x1f, 0xeb, 0x26, 0xe9,
  0x25, 0x3f, 0x04, 0x17, 0xdd, 0xf9, 0x15, 0x21, 0x11, 0xfe, 0x0b, 0xf6,
  0xfb, 0x4c, 0xeb, 0x09, 0xfa, 0x21, 0x1e, 0x16, 0xfb, 0xd8, 0x15, 0xfd,
  0x1b, 0x41, 0xf4, 0xea, 0x04, 0x05, 0x48, 0x42, 0x09, 0x08, 0xe7, 0xf0,
  0xeb, 0x50, 0x18, 0xe3, 0x0e, 0xff, 0xe7, 0x1d, 0x07, 0x0b, 0x13, 0x06,
  0xd9, 0x0b, 0x18, 0x1a, 0xe8, 0x1d, 0x0b, 0xf8, 0xe2, 0x18, 0xf3, 0x1e,
  0x1f, 0xf9, 0xec, 0xfc, 0xdf, 0xea, 0x0f, 0xf8, 0xde, 0x07, 0x07, 0xfd,
  0xf5, 0x2a, 0xd6, 0x2f, 0xf6, 0xea, 0xcc, 0x0e, 0xfe, 0x00, 0xe2, 0x2e,
  0x0c, 0x19, 0x04, 0x00, 0xf3, 0xe8, 0x08, 0xfe, 0xfe, 0x0d, 0x06, 0xff,
  0xf9, 0xec, 0xf3, 0xe1, 0x22, 0xf6, 0x04, 0x0c, 0xec, 0xef, 0x0a, 0xf1,
  0x0d, 0xe5, 0xe6, 0xfe, 0x21, 0xf9, 0x10, 0x1d, 0x0a, 0xf8, 0xfe, 0x0d,
  0x04, 0x02, 0x2f, 0xf4, 0x1f, 0x28, 0xf6, 0x04, 0xe6, 0x26, 0x1f, 0x27,
  0xdc, 0x26, 0xff, 0x04, 0x13, 0x2c, 0xf1, 0xf3, 0xfe, 0x01, 0xe7, 0xfe,
  0xf2, 0xd4, 0xca, 0xe6, 0xda, 0xea, 0xe0, 0x2f, 0x21, 0xf7, 0x03, 0x2c,
  0x16, 0xdc, 0x26, 0x32, 0x05, 0xf0, 0x2a, 0xda, 0xdf, 0xec, 0x15, 0xe6,
  0xed, 0x2f, 0x18, 0xf2, 0x2a, 0x0d, 0xf5, 0x1d, 0x01, 0x06, 0xdb, 0xf1,
  0x29, 0x10, 0x27, 0x14, 0xee, 0x21, 0xee, 0xf1, 0x2b, 0xd3, 0xed, 0x1f,
  0x05, 0x29, 0xe6, 0x0d, 0x21, 0xfd, 0x25, 0xdb, 0x1e, 0x01, 0xf6, 0x14,
  0xf7, 0x29, 0x1e, 0x27, 0xe8, 0x25, 0x2b, 0x01, 0x05, 0x16, 0x00, 0x16,
  0x1a, 0x22, 0xff, 0xd9, 0xfe, 0x03, 0xf9, 0x19, 0x25, 0x19, 0xd6, 0x0d,
  0xfb, 0x2f, 0x0c, 0xe6, 0x05, 0xff, 0xe9, 0x24, 0x3c, 0xe4, 0xf1, 0xcf,
  0x01, 0x11, 0x15, 0xe3, 0x1a, 0x28, 0xfb, 0x26, 0x16, 0x04, 0xd7, 0x12,
  0xe8, 0x35, 0x37, 0xe3, 0xf9, 0x06, 0x0f, 0x05, 0x0d, 0x12, 0xf7, 0xec,
  0xf1, 0x31, 0x1d, 0xfb, 0xe1, 0x08, 0xcd, 0xfb, 0xfc, 0x04, 0xde, 0x14,
  0x20, 0x27, 0x09, 0xfa, 0x00, 0xe3, 0xf4, 0xfd, 0xf9, 0xfc, 0xee, 0xe6,
  0x23, 0x4b, 0xf6, 0x02, 0xf8, 0xe8, 0x45, 0x1c, 0x08, 0x37, 0x1e, 0x06,
  0x12, 0x2e, 0xeb, 0xed, 0xf6, 0x1c, 0x30, 0x57, 0xda, 0x32, 0xf6, 0x1e,
  0x35, 0x2b, 0xed, 0x2e, 0x2e, 0xf4, 0x26, 0x3b, 0xd5, 0x00, 0x00, 0xe4,
  0x23, 0x44, 0x2b, 0x11, 0x18, 0x03, 0x4d, 0x4d, 0x26, 0x01, 0xf2, 0x1b,
  0x1c, 0x17, 0x24, 0xd6, 0xfd, 0x16, 0x30, 0x10, 0xdb, 0xc9, 0xfd, 0x31,
  0x12, 0x0b, 0x0a, 0xf4, 0x16, 0x1b, 0x27, 0x4d, 0x3f, 0xfb, 0x0b, 0xfc,
  0x28, 0x65, 0x1f, 0xcc, 0xe5, 0xfc, 0x21, 0x74, 0x13, 0x24, 0xf9, 0x1e,
  0x4e, 0x6b, 0xf4, 0x03, 0x13, 0xf5, 0xf5, 0x46, 0x3a, 0x22, 0x13, 0x15,
  0x28, 0x53, 0xe1, 0xf5, 0x0d, 0x0f, 0x20, 0x1f, 0x0d, 0x0b, 0x29, 0xcd,
  0x24, 0x77, 0x1a, 0xef, 0xdf, 0x17, 0x2c, 0x7f, 0xef, 0xb5, 0xee, 0xf2,
  0x1e, 0xfe, 0x14, 0x24, 0xe8, 0xf1, 0x00, 0x0f, 0x0c, 0xee, 0x23, 0x08,
  0xfa, 0xdb, 0xee, 0x04, 0xfa, 0xf2, 0xef, 0xea, 0xd9, 0x09, 0x16, 0xff,
  0xd5, 0xe8, 0x19, 0x0f, 0x33, 0xe2, 0x24, 0x34, 0x1c, 0x1f, 0x1e, 0x11,
  0xdd, 0xeb, 0x18, 0xd7, 0xe0, 0xf9, 0xc3, 0x17, 0x0a, 0xfc, 0x16, 0xe0,
  0x28, 0x03, 0xfe, 0x19, 0x13, 0x1a, 0x08, 0x00, 0xff, 0xf6, 0xe8, 0xe8,
  0xf0, 0xf1, 0xf0, 0xe1, 0x1d, 0x15, 0xfe, 0x04, 0x00, 0x09, 0xff, 0x19,
  0x0f, 0x0d, 0xd0, 0xea, 0x16, 0xe1, 0xf6, 0xec, 0x30, 0x04, 0x0a, 0x18,
  0xfe, 0xd7, 0xe5, 0xd7, 0xdb, 0x17, 0xf9, 0xe5, 0xfb, 0xfa, 0x08, 0x02,
  0xf6, 0xdf, 0x09, 0xf1, 0xe0, 0x05, 0xec, 0x1c, 0x26, 0xec, 0xe1, 0x06,
  0x0a, 0xed, 0xf6, 0xfb, 0x1d, 0xcc, 0x09, 0xfd, 0xdc, 0xf8, 0x28, 0xfe,
  0x0d, 0x11, 0x25, 0xe0, 0xec, 0x14, 0xe1, 0xd0, 0xf3, 0xff, 0xed, 0xff,
  0x0e, 0xd0, 0xea, 0xee, 0x24, 0x34, 0xdb, 0xdc, 0xd4, 0x15, 0x31, 0x15,
  0x05, 0x08, 0x09, 0x1e, 0xee, 0x0e, 0x27, 0x00, 0x17, 0x1b, 0xf9, 0x28,
  0xed, 0x01, 0x2a, 0xed, 0xf6, 0xd6, 0x1f, 0x05, 0xf8, 0xee, 0xf7, 0xf0,
  0x2c, 0xfa, 0xeb, 0xfd, 0xf5, 0xf0, 0x05, 0x0a, 0xe9, 0xf3, 0xfc, 0x09,
  0xe5, 0xf0, 0xf4, 0x0f, 0xd8, 0x1b, 0x02, 0x0f, 0x17, 0xf5, 0x00, 0x0f,
  0x29, 0xe9, 0xfd, 0x17, 0xfb, 0xf8, 0xf9, 0x1f, 0xef, 0xcd, 0x09, 0xe5,
  0x2e, 0x2b, 0x0b, 0xec, 0x20, 0xfe, 0x00, 0x18, 0xe9, 0x23, 0xdc, 0x15,
  0x1f, 0x1c, 0x1b, 0xe8, 0xf2, 0x1a, 0xf5, 0xe7, 0xf9, 0xd4, 0x1e, 0xf5,
  0x09, 0x0b, 0xd5, 0x0b, 0xeb, 0xea, 0x09, 0xea, 0xe6, 0xe4, 0x03, 0xf3,
  0x1e, 0x1c, 0xea, 0x2f, 0x04, 0xf7, 0xfc, 0x2e, 0x09, 0x1c, 0x03, 0x14,
  0xe5, 0xde, 0x1f, 0x20, 0x04, 0xd9, 0x11, 0xfd, 0x06, 0xfa, 0x1f, 0xf1,
  0x02, 0x2e, 0xd2, 0x21, 0x00, 0xf8, 0xe8, 0xd9, 0xe5, 0xee, 0x1c, 0x04,
  0xd4, 0xf4, 0x14, 0x33, 0x01, 0xf5, 0xe6, 0xf4, 0xd8, 0xe6, 0xe8, 0xdf,
  0x04, 0x07, 0xe6, 0x04, 0x18, 0xfe, 0x12, 0xe1, 0xf4, 0xe6, 0x0a, 0xd1,
  0xec, 0x12, 0xeb, 0xfe, 0xdb, 0xf9, 0xde, 0xd9, 0xfc, 0x01, 0xf6, 0x09,
  0x0e, 0x2d, 0x24, 0x0e, 0xec, 0x07, 0x08, 0xea, 0xf6, 0x13, 0xea, 0x0b,
  0xd7, 0x1c, 0x18, 0x00, 0x25, 0x13, 0x0b, 0xde, 0xed, 0xe2, 0x02, 0x0c,
  0xff, 0x17, 0x16, 0xff, 0xf5, 0xd8, 0x05, 0xf5, 0xfa, 0x05, 0x0f, 0x2e,
  0xe5, 0xd6, 0x2d, 0x32, 0xfc, 0xfc, 0x1e, 0xf7, 0x08, 0xec, 0x0c, 0x05,
  0x14, 0xc9, 0x11, 0xda, 0xf1, 0x1f, 0xe2, 0xbf, 0xef, 0x26, 0xe0, 0xcb,
  0xdb, 0xd3, 0x1e, 0x13, 0x0d, 0x0f, 0xde, 0xf6, 0x1e, 0xe5, 0xf0, 0xf4,
  0xfd, 0xfd, 0x18, 0x28, 0x26, 0xf6, 0xf0, 0x00, 0x07, 0x0a, 0xef, 0xf2,
  0xf3, 0xc9, 0x07, 0xf8, 0x2b, 0xf8, 0x05, 0xe2, 0x1f, 0x0c, 0x20, 0xd4,
  0xf6, 0xd6, 0xfb, 0x08, 0xe5, 0x29, 0x0b, 0xbb, 0xf8, 0xf4, 0xe8, 0xe7,
  0xfa, 0xf8, 0x20, 0x0b, 0xd8, 0x1a, 0x25, 0xd0, 0xfe, 0x39, 0x09, 0x10,
  0x0d, 0xd4, 0x10, 0x07, 0x01, 0x27, 0xeb, 0x09, 0xf5, 0xe8, 0x2e, 0x07,
  0xde, 0xc9, 0x0f, 0xeb, 0xf9, 0xeb, 0xdc, 0xe1, 0x29, 0x2a, 0xea, 0xff,
  0x20, 0xdb, 0x15, 0x12, 0x2d, 0x0c, 0xf7, 0xd0, 0x12, 0x03, 0x30, 0xe9,
  0xdf, 0xda, 0x01, 0xf1, 0xfd, 0x06, 0x1b, 0xf2, 0x16, 0x1d, 0x0b, 0xe2,
  0xd9, 0xcc, 0x18, 0x22, 0x04, 0x1d, 0xe8, 0xd6, 0xfb, 0x08, 0xfe, 0x13,
  0xec, 0xd2, 0xf6, 0xd8, 0xee, 0xf7, 0xf8, 0xe3, 0xdb, 0x21, 0xe2, 0x0e,
  0x06, 0xac, 0xfd, 0x18, 0x03, 0x19, 0x09, 0xc5, 0xf6, 0xed, 0x1d, 0xf9,
  0x39, 0xc3, 0xf9, 0xdc, 0x20, 0x0f, 0xfc, 0xe1, 0xe9, 0xf6, 0x07, 0x1f,
  0x34, 0xca, 0xee, 0xf1, 0xfd, 0xf5, 0x2b, 0xc2, 0x0e, 0x16, 0xdb, 0xe2,
  0x3e, 0xbb, 0xd4, 0xec, 0x05, 0x07, 0xe2, 0xd5, 0x04, 0x0f, 0x0e, 0xe4,
  0x2a, 0xed, 0x02, 0xf8, 0xe7, 0xdd, 0xe8, 0xb3, 0xf3, 0xfc, 0xfa, 0xfa,
  0xe8, 0xd1, 0x23, 0x34, 0x22, 0x05, 0xf4, 0xd0, 0x26, 0xd0, 0x26, 0xfe,
  0x20, 0xd1, 0x01, 0xfb, 0x0a, 0x09, 0x00, 0xb1, 0x1e, 0xfe, 0xeb, 0x1c,
  0x0c, 0xc8, 0xf0, 0xfc, 0x2a, 0xe9, 0xf9, 0xa7, 0xfe, 0x13, 0xd7, 0xeb,
  0xd3, 0x06, 0x22, 0xf9, 0xe3, 0x2e, 0xe5, 0x1b, 0x2c, 0x0b, 0xfc, 0x2c,
  0x14, 0x2c, 0x03, 0x24, 0x0c, 0xdf, 0x09, 0xe9, 0xf9, 0xf1, 0x0e, 0xdd,
  0xd4, 0x23, 0x12, 0xec, 0xdd, 0xf5, 0xf4, 0x01, 0x33, 0xda, 0x24, 0x1f,
  0xe9, 0xec, 0xf3, 0x30, 0x15, 0x00, 0xeb, 0x26, 0x11, 0x12, 0xf0, 0xef,
  0x07, 0x1d, 0xde, 0x22, 0x01, 0x13, 0xcb, 0x09, 0xfb, 0xed, 0x20, 0xdb,
  0x12, 0x00, 0x11, 0x09, 0x12, 0x01, 0xd6, 0x1b, 0x0c, 0x18, 0x00, 0x09,
  0xfd, 0xe5, 0x17, 0x05, 0x05, 0x04, 0x04, 0x2b, 0x2a, 0xf4, 0xf4, 0xf5,
  0xef, 0xf2, 0x20, 0x18, 0xf0, 0x1a, 0xe6, 0x04, 0xf8, 0x04, 0xed, 0x06,
  0xf3, 0x0b, 0x21, 0x04, 0xef, 0x0d, 0x0f, 0xe7, 0x12, 0x03, 0x00, 0x03,
  0xed, 0xf8, 0xf8, 0x0c, 0x17, 0x05, 0xfc, 0xfe, 0x25, 0xdd, 0x08, 0xe7,
  0x02, 0xcc, 0xf0, 0x1a, 0x06, 0xed, 0xee, 0xce, 0x1c, 0x06, 0xe9, 0xde,
  0xf5, 0xd0, 0x0c, 0xf7, 0x0d, 0x15, 0x10, 0xe9, 0x11, 0x15, 0x0a, 0xd6,
  0xf2, 0xe6, 0x0b, 0x05, 0x23, 0x0c, 0x12, 0xf6, 0x1c, 0x10, 0xf7, 0x1f,
  0x13, 0x01, 0xe3, 0x14, 0x1c, 0xea, 0xf6, 0xed, 0x02, 0x26, 0x32, 0xe0,
  0xe6, 0xe5, 0x1c, 0xf5, 0x09, 0x10, 0xfe, 0xeb, 0x0d, 0x06, 0xe5, 0xea,
  0xd0, 0xfe, 0x08, 0x0d, 0xd9, 0xf9, 0xbf, 0xc5, 0xf6, 0x19, 0xd3, 0xe7,
  0xe1, 0xea, 0x06, 0xe6, 0x06, 0x02, 0xef, 0xef, 0xf6, 0xf3, 0xdf, 0xdb,
  0xdd, 0xce, 0xf0, 0x19, 0x2b, 0xec, 0xee, 0xde, 0xd8, 0xe8, 0x07, 0x0b,
  0x03, 0xca, 0x15, 0x17, 0x22, 0x22, 0xfc, 0xc1, 0x05, 0x05, 0x00, 0xf2,
  0xd9, 0xb1, 0x0c, 0x08, 0x11, 0x1c, 0x0d, 0xd1, 0xec, 0xeb, 0xd4, 0xf8,
  0xc7, 0xdc, 0x1b, 0x03, 0xe3, 0xf8, 0xe0, 0x07, 0x17, 0x1e, 0x13, 0x31,
  0xe4, 0xe4, 0xfa, 0x18, 0x09, 0xd6, 0x24, 0xdb, 0xd8, 0xf2, 0xfa, 0x11,
  0xf5, 0xff, 0xfc, 0x0e, 0xf6, 0x18, 0x21, 0x03, 0x0d, 0xf4, 0x00, 0xd6,
  0xf3, 0xfc, 0xe9, 0xfc, 0xf9, 0xf8, 0xe9, 0x04, 0xfa, 0x09, 0x05, 0x09,
  0xd8, 0xdd, 0x19, 0x31, 0xed, 0xff, 0xda, 0x1b, 0xdc, 0x11, 0xe4, 0xfb,
  0xed, 0xd5, 0xd2, 0x09, 0xf9, 0xe9, 0xe5, 0xdd, 0xf6, 0x24, 0x02, 0xe3,
  0x06, 0xda, 0x18, 0xdd, 0x2c, 0xe1, 0x1a, 0xe3, 0x24, 0x03, 0xec, 0xf0,
  0xcf, 0xcc, 0xfb, 0x15, 0x10, 0xed, 0x18, 0x07, 0x14, 0xfc, 0xdd, 0xf5,
  0xdd, 0xe6, 0x20, 0xdb, 0x0a, 0x07, 0xf4, 0xec, 0xe6, 0x20, 0x0e, 0xfd,
  0xf4, 0xcd, 0x27, 0x04, 0x1a, 0xd2, 0x18, 0xc0, 0xfc, 0x00, 0x0d, 0x15,
  0xfa, 0xfa, 0xff, 0xff, 0x04, 0x00, 0x00, 0x00, 0xc8, 0x00, 0x00, 0x00,
  0x00, 0x00, 0x00, 0x00, 0xfc, 0x21, 0x00, 0x00, 0x53, 0x17, 0x00, 0x00,
  0x0d, 0xb3, 0xff, 0xff, 0x4b, 0xdf, 0x00, 0x00, 0xad, 0x3f, 0x00, 0x00,
  0xb2, 0x0e, 0x00, 0x00, 0x1d, 0x87, 0x00, 0x00, 0x87, 0x11, 0x00, 0x00,
  0x9a, 0xdb, 0xff, 0xff, 0xe2, 0x3a, 0x00, 0x00, 0x00, 0x00, 0x00, 0x00,
  0xd6, 0xf3, 0xff, 0xff, 0x8a, 0x01, 0x00, 0x00, 0x50, 0xfe, 0xff, 0xff,
  0x36, 0x0f, 0x00, 0x00, 0xe1, 0xec, 0xff, 0xff, 0x92, 0x3a, 0x00, 0x00,
  0x96, 0xf8, 0xff, 0xff, 0xf1, 0x0b, 0x00, 0x00, 0x03, 0x0e, 0x00, 0x00,
  0x0c, 0xf2, 0xff, 0xff, 0x45, 0x2d, 0x00, 0x00, 0xf9, 0xf8, 0xff, 0xff,
  0xb4, 0x59, 0x00, 0x00, 0x5a, 0x43, 0x00, 0x00, 0x5a, 0x2d, 0x00, 0x00,
  0xbe, 0xec, 0xff, 0xff, 0xeb, 0xf2, 0xff, 0xff, 0xf7, 0xdb, 0xff, 0xff,
  0x3d, 0xe4, 0xff, 0xff, 0x00, 0x00, 0x00, 0x00, 0x57, 0x2d, 0x00, 0x00,
  0xd6, 0x0e, 0x00, 0x00, 0xfd, 0x08, 0x00, 0x00, 0x00, 0x00, 0x00, 0x00,
  0x02, 0xf4, 0xff, 0xff, 0x90, 0x52, 0x00, 0x00, 0xcd, 0xc8, 0xff, 0xff,
  0x24, 0x00, 0x00, 0x00, 0xba, 0x1c, 0x00, 0x00, 0x82, 0xc9, 0xff, 0xff,
  0x7f, 0x11, 0x00, 0x00, 0xc0, 0xe0, 0xff, 0xff, 0x45, 0xed, 0xff, 0xff,
  0xf0, 0x8d, 0x00, 0x00, 0x40, 0xf7, 0xff, 0xff, 0x6f, 0x25, 0x00, 0x00,
  0xb8, 0x51, 0x00, 0x00, 0x46, 0x52, 0x00, 0x00, 0xce, 0xfb, 0xff, 0xff,
  0x04, 0x00, 0x00, 0x00, 0xee, 0x02, 0x00, 0x00, 0x1e, 0x33, 0xf1, 0x4f,
  0x1c, 0x0b, 0x22, 0x08, 0x36, 0x2a, 0x20, 0xd6, 0xdd, 0xf5, 0x05, 0xe8,
  0x11, 0xef, 0xeb, 0x0d, 0xf5, 0x04, 0xe7, 0x2c, 0xfd, 0x0d, 0xd0, 0xfc,
  0xe7, 0x33, 0x15, 0xfe, 0x59, 0x0e, 0x00, 0xc5, 0x38, 0x24, 0x25, 0xc9,
  0x20, 0x40, 0xf1, 0xe6, 0x02, 0xed, 0xbf, 0xf6, 0xd4, 0x30, 0x3b, 0x2d,
  0x1b, 0x75, 0xbf, 0xc8, 0x46, 0xd3, 0x14, 0x42, 0x17, 0xde, 0xed, 0x07,
  0x0c, 0xff, 0xca, 0xae, 0x16, 0xf5, 0xea, 0xde, 0x02, 0x01, 0xb9, 0x0c,
  0xd1, 0xfb, 0xe1, 0x32, 0xf5, 0x1c, 0x40, 0xd4, 0x11, 0x1f, 0xcd, 0x46,
  0x64, 0x22, 0x25, 0x7f, 0xd6, 0xf6, 0x42, 0xe5, 0x05, 0x00, 0xbf, 0xda,
  0x24, 0xe4, 0xda, 0x34, 0xe6, 0x08, 0xee, 0xd9, 0xe9, 0xe2, 0x1c, 0x17,
  0xf0, 0xdd, 0xed, 0xec, 0xd3, 0xc9, 0xf0, 0x1f, 0xe8, 0x31, 0x1b, 0xda,
  0x2d, 0xe8, 0x13, 0xf2, 0xfc, 0xfc, 0xfc, 0x28, 0xe2, 0xfe, 0x01, 0x11,
  0x01, 0x0c, 0xf1, 0xef, 0x22, 0x0b, 0x16, 0x1a, 0xf3, 0x15, 0x12, 0xf6,
  0xfe, 0xfe, 0xd3, 0xee, 0x1c, 0x96, 0x66, 0x2c, 0xf7, 0x3c, 0x32, 0xe7,
  0xd5, 0x04, 0x02, 0x0a, 0xeb, 0x0d, 0xf1, 0x2e, 0x1a, 0xff, 0x16, 0x1f,
  0x21, 0xd1, 0x03, 0x10, 0x1c, 0xf4, 0x01, 0xdd, 0x03, 0xfd, 0xc8, 0x0f,
  0x01, 0xc9, 0x17, 0xf9, 0xfc, 0x2d, 0xea, 0xac, 0xee, 0xe9, 0xf2, 0x31,
  0x22, 0x25, 0x60, 0x35, 0xe6, 0x27, 0x08, 0x21, 0xd6, 0x0d, 0x28, 0x07,
  0xf8, 0x0f, 0xee, 0xfc, 0x00, 0x12, 0xd8, 0xd9, 0xff, 0x1b, 0x2c, 0x2d,
  0xe3, 0xdf, 0xd9, 0xd2, 0xde, 0x0c, 0xe3, 0x00, 0xf0, 0xda, 0x00, 0x20,
  0xd4, 0xef, 0x10, 0x17, 0x1c, 0xcd, 0xbe, 0x05, 0xf4, 0xdd, 0x1e, 0xe6,
  0xe2, 0xdb, 0x12, 0xec, 0xe5, 0xd7, 0x0f, 0x0f, 0x2c, 0xde, 0xf3, 0xe9,
  0x0e, 0xe6, 0xd3, 0xe3, 0x1f, 0xfc, 0xf8, 0x0b, 0x2c, 0xc5, 0x03, 0x06,
  0x33, 0xe6, 0x13, 0xee, 0xe6, 0x11, 0x1d, 0x29, 0xf9, 0xfc, 0xe6, 0xd3,
  0x20, 0x0a, 0x22, 0xd5, 0x11, 0x05, 0xe3, 0xf6, 0xf3, 0xda, 0xf0, 0x26,
  0x15, 0xc2, 0xc2, 0x0c, 0xff, 0xc8, 0xde, 0x08, 0x35, 0xe5, 0x32, 0xce,
  0x41, 0x1f, 0xf2, 0x3d, 0x52, 0xb3, 0xb2, 0x02, 0xf7, 0x44, 0x00, 0x0b,
  0xd7, 0x50, 0xd8, 0xba, 0x30, 0xf6, 0x13, 0x11, 0x39, 0xc3, 0xfd, 0xf9,
  0x0a, 0x18, 0xf8, 0x3e, 0xe7, 0x2f, 0x2f, 0xe1, 0xed, 0xa3, 0xcc, 0xce,
  0xe2, 0xf8, 0xf5, 0xf1, 0xf4, 0x39, 0x45, 0xe2, 0x0d, 0x14, 0x1a, 0x51,
  0xff, 0xce, 0x21, 0x31, 0x05, 0x1c, 0xaa, 0x0a, 0x5e, 0x14, 0x31, 0xbb,
  0xe3, 0x02, 0x31, 0xb3, 0x25, 0xfb, 0xbb, 0xf3, 0xdd, 0x0f, 0x01, 0x37,
  0xeb, 0xe6, 0x24, 0x03, 0x2a, 0x19, 0x20, 0xe4, 0x2c, 0x04, 0x37, 0x48,
  0xbf, 0xf6, 0x2a, 0xa2, 0x0c, 0xdc, 0x22, 0x1b, 0xb1, 0x3a, 0xed, 0x29,
  0x05, 0x08, 0xe9, 0x5e, 0xff, 0x18, 0xf5, 0x02, 0x6f, 0x46, 0xbd, 0xf4,
  0xe3, 0x54, 0xde, 0x40, 0xe7, 0x49, 0xd4, 0xf1, 0x17, 0xd9, 0x27, 0x0e,
  0x1a, 0x16, 0x2f, 0xd6, 0x16, 0x19, 0x01, 0xdc, 0xce, 0x39, 0x0b, 0xf6,
  0x1f, 0xf7, 0x36, 0xf8, 0xe8, 0x7b, 0xf4, 0x01, 0xf0, 0x14, 0x7b, 0xfc,
  0xe9, 0x10, 0xda, 0xc8, 0x1d, 0xf1, 0xd6, 0x0c, 0x03, 0xf0, 0xf6, 0xef,
  0x1f, 0x14, 0x07, 0xfd, 0xe9, 0x01, 0x19, 0x05, 0xf3, 0xe2, 0xce, 0x3e,
  0xef, 0x03, 0xeb, 0xd7, 0xec, 0x15, 0x2f, 0x34, 0x42, 0x29, 0xfd, 0xe2,
  0xf1, 0x25, 0xf9, 0x06, 0x02, 0xe5, 0xec, 0xc9, 0xec, 0xe4, 0xfb, 0x15,
  0xef, 0xe8, 0x07, 0xf8, 0xf1, 0x1c, 0xd0, 0x36, 0xde, 0x2a, 0x14, 0xcd,
  0x0b, 0x45, 0xfe, 0xe7, 0x05, 0x00, 0x07, 0x1d, 0xd0, 0x14, 0x03, 0xb8,
  0x18, 0xda, 0xfe, 0x12, 0xf8, 0xfc, 0x02, 0xfc, 0xe7, 0x13, 0x39, 0xdd,
  0x27, 0xef, 0x28, 0xf9, 0x18, 0x23, 0x2e, 0x1f, 0x26, 0x2b, 0xcc, 0xf2,
  0x03, 0xcd, 0xe6, 0xf2, 0x00, 0xf4, 0x00, 0xd8, 0x02, 0xec, 0x56, 0x31,
  0xf9, 0x10, 0xf0, 0xb4, 0xe6, 0xe6, 0xf3, 0x20, 0xe3, 0x0f, 0x0a, 0x20,
  0xfa, 0x4a, 0xc9, 0xfa, 0xfa, 0x0d, 0x43, 0xec, 0xfc, 0xd8, 0xf7, 0xe9,
  0xf7, 0xd8, 0x08, 0xfa, 0xdb, 0x0c, 0xdd, 0xda, 0xba, 0x17, 0xff, 0xe2,
  0xec, 0xf1, 0xef, 0x36, 0xf4, 0x2c, 0x11, 0x23, 0x03, 0x35, 0x29, 0x7d,
  0xe9, 0xfb, 0xdd, 0x28, 0xef, 0x47, 0x72, 0xe8, 0xe0, 0xd6, 0xff, 0xd5,
  0xe9, 0xc4, 0xd1, 0xfa, 0x01, 0xf1, 0x16, 0xf3, 0xc4, 0x71, 0xf7, 0x26,
  0xfd, 0x1e, 0xdc, 0xe4, 0x6c, 0xe8, 0xe6, 0x11, 0x02, 0x39, 0x19, 0xdd,
  0x1d, 0x71, 0xf8, 0xe5, 0xf5, 0x0b, 0xf7, 0x2f, 0xf7, 0xe6, 0x29, 0x0a,
  0x10, 0x1a, 0xd4, 0x2a, 0x00, 0xec, 0xfc, 0xf8, 0xff, 0xef, 0xf5, 0xdc,
  0x29, 0xcf, 0x39, 0xbf, 0xc6, 0xe5, 0xd5, 0xf5, 0xf8, 0x15, 0xd2, 0xdb,
  0xfe, 0x25, 0x2d, 0x3d, 0xdd, 0xcf, 0x54, 0xdf, 0xf6, 0x03, 0x00, 0xe3,
  0x49, 0xec, 0x39, 0x3f, 0xbe, 0x14, 0x1f, 0x02, 0x11, 0x4d, 0xfa, 0xee,
  0x30, 0xe8, 0xfa, 0x8c, 0x5e, 0x26, 0x07, 0x06, 0xcb, 0x1d, 0x11, 0x1b,
  0x09, 0xee, 0x03, 0x2a, 0xf8, 0x09, 0xd0, 0xf6, 0xbe, 0x12, 0x0f, 0x3b,
  0x28, 0x0e, 0xf7, 0x0e, 0xd8, 0xed, 0x2f, 0xed, 0x17, 0xc3, 0x2f, 0x0c,
  0x13, 0x40, 0x97, 0xfe, 0x14, 0xba, 0x04, 0x2c, 0xf1, 0x41, 0xca, 0x0a,
  0xfb, 0x15, 0x00, 0x00, 0xca, 0xfe, 0xff, 0xff, 0x04, 0x00, 0x00, 0x00,
  0x2d, 0x00, 0x00, 0x00, 0x14, 0x63, 0xdc, 0x81, 0xd4, 0x04, 0x01, 0xd0,
  0x40, 0xe2, 0x21, 0xaa, 0x55, 0x6c, 0x91, 0xba, 0xcd, 0x4e, 0x2c, 0xf7,
  0x34, 0x6c, 0xa6, 0x4f, 0xf1, 0xf5, 0x11, 0xb8, 0x38, 0xe0, 0xec, 0x87,
  0x21, 0x13, 0xf8, 0x41, 0xb7, 0x6d, 0x8c, 0x3f, 0xa1, 0x1f, 0x32, 0xff,
  0x4c, 0x00, 0x00, 0x00, 0x06, 0xff, 0xff, 0xff, 0x04, 0x00, 0x00, 0x00,
  0x3c, 0x00, 0x00, 0x00, 0x6a, 0x11, 0x00, 0x00, 0x5e, 0xf5, 0xff, 0xff,
  0x71, 0xfa, 0xff, 0xff, 0x12, 0x24, 0x00, 0x00, 0x32, 0xff, 0xff, 0xff,
  0x43, 0xf9, 0xff, 0xff, 0xdc, 0x15, 0x00, 0x00, 0x62, 0x12, 0x00, 0x00,
  0x43, 0x02, 0x00, 0x00, 0x00, 0x00, 0x00, 0x00, 0xfe, 0xf6, 0xff, 0xff,
  0x4c, 0x16, 0x00, 0x00, 0x35, 0x1e, 0x00, 0x00, 0x23, 0x06, 0x00, 0x00,
  0x1b, 0x18, 0x00, 0x00, 0x4e, 0xff, 0xff, 0xff, 0x04, 0x00, 0x00, 0x00,
  0x0c, 0x00, 0x00, 0x00, 0xdc, 0xfd, 0xff, 0xff, 0x7c, 0xfd, 0xff, 0xff,
  0x7c, 0x01, 0x00, 0x00, 0x34, 0xff, 0xff, 0xff, 0x0f, 0x00, 0x00, 0x00,
  0x54, 0x4f, 0x43, 0x4f, 0x20, 0x43, 0x6f, 0x6e, 0x76, 0x65, 0x72, 0x74,
  0x65, 0x64, 0x2e, 0x00, 0x01, 0x00, 0x00, 0x00, 0x04, 0x00, 0x00, 0x00,
  0x00, 0xf9, 0xff, 0xff, 0x94, 0x01, 0x00, 0x00, 0x88, 0x01, 0x00, 0x00,
  0x7c, 0x01, 0x00, 0x00, 0x04, 0x00, 0x00, 0x00, 0x06, 0x00, 0x00, 0x00,
  0x50, 0x01, 0x00, 0x00, 0x04, 0x01, 0x00, 0x00, 0xbc, 0x00, 0x00, 0x00,
  0x74, 0x00, 0x00, 0x00, 0x38, 0x00, 0x00, 0x00, 0x04, 0x00, 0x00, 0x00,
  0xd2, 0xfe, 0xff, 0xff, 0x03, 0x00, 0x00, 0x00, 0x10, 0x00, 0x00, 0x00,
  0x04, 0x00, 0x00, 0x00, 0x01, 0x00, 0x00, 0x00, 0x0c, 0x00, 0x00, 0x00,
  0x01, 0x00, 0x00, 0x00, 0x00, 0x00, 0x00, 0x00, 0x00, 0x00, 0x0e, 0x00,
  0x1a, 0x00, 0x08, 0x00, 0x0c, 0x00, 0x10, 0x00, 0x07, 0x00, 0x14, 0x00,
  0x0e, 0x00, 0x00, 0x00, 0x00, 0x00, 0x00, 0x09, 0x01, 0x00, 0x00, 0x00,
  0x24, 0x00, 0x00, 0x00, 0x18, 0x00, 0x00, 0x00, 0x0c, 0x00, 0x00, 0x00,
  0x00, 0x00, 0x06, 0x00, 0x08, 0x00, 0x04, 0x00, 0x06, 0x00, 0x00, 0x00,
  0x00, 0x00, 0x80, 0x3f, 0x01, 0x00, 0x00, 0x00, 0x00, 0x00, 0x00, 0x00,
  0x01, 0x00, 0x00, 0x00, 0x08, 0x00, 0x00, 0x00, 0xca, 0xff, 0xff, 0xff,
  0x00, 0x00, 0x00, 0x08, 0x1c, 0x00, 0x00, 0x00, 0x10, 0x00, 0x00, 0x00,
  0x08, 0x00, 0x00, 0x00, 0x04, 0x00, 0x04, 0x00, 0x04, 0x00, 0x00, 0x00,
  0x01, 0x00, 0x00, 0x00, 0x08, 0x00, 0x00, 0x00, 0x03, 0x00, 0x00, 0x00,
  0x07, 0x00, 0x00, 0x00, 0x09, 0x00, 0x00, 0x00, 0x0a, 0x00, 0x00, 0x00,
  0x00, 0x00, 0x0e, 0x00, 0x14, 0x00, 0x00, 0x00, 0x08, 0x00, 0x0c, 0x00,
  0x07, 0x00, 0x10, 0x00, 0x0e, 0x00, 0x00, 0x00, 0x00, 0x00, 0x00, 0x08,
  0x1c, 0x00, 0x00, 0x00, 0x10, 0x00, 0x00, 0x00, 0x04, 0x00, 0x00, 0x00,
  0xba, 0xff, 0xff, 0xff, 0x00, 0x00, 0x00, 0x01, 0x01, 0x00, 0x00, 0x00,
  0x07, 0x00, 0x00, 0x00, 0x03, 0x00, 0x00, 0x00, 0x04, 0x00, 0x00, 0x00,
  0x05, 0x00, 0x00, 0x00, 0x06, 0x00, 0x00, 0x00, 0x00, 0x00, 0x0e, 0x00,
  0x16, 0x00, 0x00, 0x00, 0x08, 0x00, 0x0c, 0x00, 0x07, 0x00, 0x10, 0x00,
  0x0e, 0x00, 0x00, 0x00, 0x00, 0x00, 0x00, 0x08, 0x24, 0x00, 0x00, 0x00,
  0x18, 0x00, 0x00, 0x00, 0x0c, 0x00, 0x00, 0x00, 0x00, 0x00, 0x06, 0x00,
  0x08, 0x00, 0x07, 0x00, 0x06, 0x00, 0x00, 0x00, 0x00, 0x00, 0x00, 0x01,
  0x01, 0x00, 0x00, 0x00, 0x04, 0x00, 0x00, 0x00, 0x03, 0x00, 0x00, 0x00,
  0x01, 0x00, 0x00, 0x00, 0x02, 0x00, 0x00, 0x00, 0x03, 0x00, 0x00, 0x00,
  0x00, 0x00, 0x0a, 0x00, 0x10, 0x00, 0x04, 0x00, 0x08, 0x00, 0x0c, 0x00,
  0x0a, 0x00, 0x00, 0x00, 0x02, 0x00, 0x00, 0x00, 0x10, 0x00, 0x00, 0x00,
  0x04, 0x00, 0x00, 0x00, 0x01, 0x00, 0x00, 0x00, 0x01, 0x00, 0x00, 0x00,
  0x01, 0x00, 0x00, 0x00, 0x0b, 0x00, 0x00, 0x00, 0x01, 0x00, 0x00, 0x00,
  0x0c, 0x00, 0x00, 0x00, 0x01, 0x00, 0x00, 0x00, 0x0b, 0x00, 0x00, 0x00,
  0x0d, 0x00, 0x00, 0x00, 0xe4, 0x05, 0x00, 0x00, 0x48, 0x05, 0x00, 0x00,
  0xa8, 0x04, 0x00, 0x00, 0x34, 0x04, 0x00, 0x00, 0xb0, 0x03, 0x00, 0x00,
  0x0c, 0x03, 0x00, 0x00, 0x98, 0x02, 0x00, 0x00, 0x14, 0x02, 0x00, 0x00,
  0x88, 0x01, 0x00, 0x00, 0xe4, 0x00, 0x00, 0x00, 0x70, 0x00, 0x00, 0x00,
  0x3c, 0x00, 0x00, 0x00, 0x04, 0x00, 0x00, 0x00, 0xd8, 0xff, 0xff, 0xff,
  0x18, 0x00, 0x00, 0x00, 0x04, 0x00, 0x00, 0x00, 0x08, 0x00, 0x00, 0x00,
  0x49, 0x64, 0x65, 0x6e, 0x74, 0x69, 0x74, 0x79, 0x00, 0x00, 0x00, 0x00,
  0x02, 0x00, 0x00, 0x00, 0x01, 0x00, 0x00, 0x00, 0x03, 0x00, 0x00, 0x00,
  0x0c, 0x00, 0x0c, 0x00, 0x04, 0x00, 0x00, 0x00, 0x00, 0x00, 0x08, 0x00,
  0x0c, 0x00, 0x00, 0x00, 0x20, 0x00, 0x00, 0x00, 0x04, 0x00, 0x00, 0x00,
  0x12, 0x00, 0x00, 0x00, 0x64, 0x65, 0x6e, 0x73, 0x65, 0x5f, 0x44, 0x65,
  0x6e, 0x73, 0x65, 0x34, 0x5f, 0x69, 0x6e, 0x70, 0x75, 0x74, 0x00, 0x00,
  0x02, 0x00, 0x00, 0x00, 0x01, 0x00, 0x00, 0x00, 0x78, 0x00, 0x00, 0x00,
  0xc2, 0xfa, 0xff, 0xff, 0x00, 0x00, 0x00, 0x02, 0x60, 0x00, 0x00, 0x00,
  0x01, 0x00, 0x00, 0x00, 0x2c, 0x00, 0x00, 0x00, 0x04, 0x00, 0x00, 0x00,
  0xb4, 0xfa, 0xff, 0xff, 0x18, 0x00, 0x00, 0x00, 0x04, 0x00, 0x00, 0x00,
  0x01, 0x00, 0x00, 0x00, 0x00, 0x00, 0x00, 0x00, 0x00, 0x00, 0x00, 0x00,
  0x00, 0x00, 0x00, 0x00, 0x01, 0x00, 0x00, 0x00, 0x73, 0xad, 0x1b, 0x39,
  0x25, 0x00, 0x00, 0x00, 0x73, 0x65, 0x71, 0x75, 0x65, 0x6e, 0x74, 0x69,
  0x61, 0x6c, 0x5f, 0x32, 0x2f, 0x64, 0x65, 0x6e, 0x73, 0x65, 0x5f, 0x44,
  0x65, 0x6e, 0x73, 0x65, 0x36, 0x2f, 0x4d, 0x61, 0x74, 0x4d, 0x75, 0x6c,
  0x5f, 0x62, 0x69, 0x61, 0x73, 0x00, 0x00, 0x00, 0x01, 0x00, 0x00, 0x00,
  0x03, 0x00, 0x00, 0x00, 0x32, 0xfb, 0xff, 0xff, 0x00, 0x00, 0x00, 0x09,
  0x8c, 0x00, 0x00, 0x00, 0x03, 0x00, 0x00, 0x00, 0x44, 0x00, 0x00, 0x00,
  0x04, 0x00, 0x00, 0x00, 0xbc, 0xfb, 0xff, 0xff, 0x30, 0x00, 0x00, 0x00,
  0x24, 0x00, 0x00, 0x00, 0x18, 0x00, 0x00, 0x00, 0x04, 0x00, 0x00, 0x00,
  0x01, 0x00, 0x00, 0x00, 0x00, 0x00, 0x00, 0x00, 0x00, 0x00, 0x00, 0x00,
  0x00, 0x00, 0x00, 0x00, 0x01, 0x00, 0x00, 0x00, 0x39, 0x0e, 0x06, 0x3c,
  0x01, 0x00, 0x00, 0x00, 0xe1, 0xa0, 0x64, 0x3f, 0x01, 0x00, 0x00, 0x00,
  0x1d, 0x02, 0x85, 0xbf, 0x39, 0x00, 0x00, 0x00, 0x73, 0x65, 0x71, 0x75,
  0x65, 0x6e, 0x74, 0x69, 0x61, 0x6c, 0x5f, 0x32, 0x2f, 0x64, 0x65, 0x6e,
  0x73, 0x65, 0x5f, 0x44, 0x65, 0x6e, 0x73, 0x65, 0x36, 0x2f, 0x4d, 0x61,
  0x74, 0x4d, 0x75, 0x6c, 0x2f, 0x52, 0x65, 0x61, 0x64, 0x56, 0x61, 0x72,
  0x69, 0x61, 0x62, 0x6c, 0x65, 0x4f, 0x70, 0x2f, 0x74, 0x72, 0x61, 0x6e,
  0x73, 0x70, 0x6f, 0x73, 0x65, 0x00, 0x00, 0x00, 0x02, 0x00, 0x00, 0x00,
  0x03, 0x00, 0x00, 0x00, 0x0f, 0x00, 0x00, 0x00, 0xd2, 0xfb, 0xff, 0xff,
  0x00, 0x00, 0x00, 0x09, 0x74, 0x00, 0x00, 0x00, 0x0b, 0x00, 0x00, 0x00,
  0x44, 0x00, 0x00, 0x00, 0x04, 0x00, 0x00, 0x00, 0x5c, 0xfc, 0xff, 0xff,
  0x30, 0x00, 0x00, 0x00, 0x24, 0x00, 0x00, 0x00, 0x18, 0x00, 0x00, 0x00,
  0x04, 0x00, 0x00, 0x00, 0x01, 0x00, 0x00, 0x00, 0xdd, 0xff, 0xff, 0xff,
  0xff, 0xff, 0xff, 0xff, 0x00, 0x00, 0x00, 0x00, 0x01, 0x00, 0x00, 0x00,
  0x0d, 0xd8, 0x63, 0x3d, 0x01, 0x00, 0x00, 0x00, 0x16, 0x3a, 0x10, 0x41,
  0x01, 0x00, 0x00, 0x00, 0x3e, 0x74, 0xa5, 0xc0, 0x21, 0x00, 0x00, 0x00,
  0x73, 0x65, 0x71, 0x75, 0x65, 0x6e, 0x74, 0x69, 0x61, 0x6c, 0x5f, 0x32,
  0x2f, 0x64, 0x65, 0x6e, 0x73, 0x65, 0x5f, 0x44, 0x65, 0x6e, 0x73, 0x65,
  0x36, 0x2f, 0x42, 0x69, 0x61, 0x73, 0x41, 0x64, 0x64, 0x00, 0x00, 0x00,
  0x02, 0x00, 0x00, 0x00, 0x01, 0x00, 0x00, 0x00, 0x03, 0x00, 0x00, 0x00,
  0x5a, 0xfc, 0xff, 0xff, 0x00, 0x00, 0x00, 0x09, 0x6c, 0x00, 0x00, 0x00,
  0x09, 0x00, 0x00, 0x00, 0x40, 0x00, 0x00, 0x00, 0x04, 0x00, 0x00, 0x00,
  0xe4, 0xfc, 0xff, 0xff, 0x2c, 0x00, 0x00, 0x00, 0x20, 0x00, 0x00, 0x00,
  0x14, 0x00, 0x00, 0x00, 0x04, 0x00, 0x00, 0x00, 0x01, 0x00, 0x00, 0x00,
  0x80, 0xff, 0xff, 0xff, 0xff, 0xff, 0xff, 0xff, 0x01, 0x00, 0x00, 0x00,
  0x30, 0xa5, 0x94, 0x3c, 0x01, 0x00, 0x00, 0x00, 0x8b, 0x10, 0x94, 0x40,
  0x01, 0x00, 0x00, 0x00, 0x00, 0x00, 0x00, 0x00, 0x1e, 0x00, 0x00, 0x00,
  0x73, 0x65, 0x71, 0x75, 0x65, 0x6e, 0x74, 0x69, 0x61, 0x6c, 0x5f, 0x32,
  0x2f, 0x64, 0x65, 0x6e, 0x73, 0x65, 0x5f, 0x44, 0x65, 0x6e, 0x73, 0x65,
  0x35, 0x2f, 0x52, 0x65, 0x6c, 0x75, 0x00, 0x00, 0x02, 0x00, 0x00, 0x00,
  0x01, 0x00, 0x00, 0x00, 0x0f, 0x00, 0x00, 0x00, 0xda, 0xfc, 0xff, 0xff,
  0x00, 0x00, 0x00, 0x02, 0x60, 0x00, 0x00, 0x00, 0x02, 0x00, 0x00, 0x00,
  0x2c, 0x00, 0x00, 0x00, 0x04, 0x00, 0x00, 0x00, 0xcc, 0xfc, 0xff, 0xff,
  0x18, 0x00, 0x00, 0x00, 0x04, 0x00, 0x00, 0x00, 0x01, 0x00, 0x00, 0x00,
  0x00, 0x00, 0x00, 0x00, 0x00, 0x00, 0x00, 0x00, 0x00, 0x00, 0x00, 0x00,
  0x01, 0x00, 0x00, 0x00, 0xd2, 0x44, 0x04, 0x38, 0x25, 0x00, 0x00, 0x00,
  0x73, 0x65, 0x71, 0x75, 0x65, 0x6e, 0x74, 0x69, 0x61, 0x6c, 0x5f, 0x32,
  0x2f, 0x64, 0x65, 0x6e, 0x73, 0x65, 0x5f, 0x44, 0x65, 0x6e, 0x73, 0x65,
  0x35, 0x2f, 0x4d, 0x61, 0x74, 0x4d, 0x75, 0x6c, 0x5f, 0x62, 0x69, 0x61,
  0x73, 0x00, 0x00, 0x00, 0x01, 0x00, 0x00, 0x00, 0x0f, 0x00, 0x00, 0x00,
  0x4a, 0xfd, 0xff, 0xff, 0x00, 0x00, 0x00, 0x09, 0x8c, 0x00, 0x00, 0x00,
  0x04, 0x00, 0x00, 0x00, 0x44, 0x00, 0x00, 0x00, 0x04, 0x00, 0x00, 0x00,
  0xd4, 0xfd, 0xff, 0xff, 0x30, 0x00, 0x00, 0x00, 0x24, 0x00, 0x00, 0x00,
  0x18, 0x00, 0x00, 0x00, 0x04, 0x00, 0x00, 0x00, 0x01, 0x00, 0x00, 0x00,
  0x00, 0x00, 0x00, 0x00, 0x00, 0x00, 0x00, 0x00, 0x00, 0x00, 0x00, 0x00,
  0x01, 0x00, 0x00, 0x00, 0xdb, 0xbb, 0xac, 0x3b, 0x01, 0x00, 0x00, 0x00,
  0x63, 0x62, 0x2b, 0x3f, 0x01, 0x00, 0x00, 0x00, 0x10, 0x2e, 0x1d, 0xbf,
  0x39, 0x00, 0x00, 0x00, 0x73, 0x65, 0x71, 0x75, 0x65, 0x6e, 0x74, 0x69,
  0x61, 0x6c, 0x5f, 0x32, 0x2f, 0x64, 0x65, 0x6e, 0x73, 0x65, 0x5f, 0x44,
  0x65, 0x6e, 0x73, 0x65, 0x35, 0x2f, 0x4d, 0x61, 0x74, 0x4d, 0x75, 0x6c,
  0x2f, 0x52, 0x65, 0x61, 0x64, 0x56, 0x61, 0x72, 0x69, 0x61, 0x62, 0x6c,
  0x65, 0x4f, 0x70, 0x2f, 0x74, 0x72, 0x61, 0x6e, 0x73, 0x70, 0x6f, 0x73,
  0x65, 0x00, 0x00, 0x00, 0x02, 0x00, 0x00, 0x00, 0x0f, 0x00, 0x00, 0x00,
  0x32, 0x00, 0x00, 0x00, 0xea, 0xfd, 0xff, 0xff, 0x00, 0x00, 0x00, 0x09,
  0x6c, 0x00, 0x00, 0x00, 0x08, 0x00, 0x00, 0x00, 0x40, 0x00, 0x00, 0x00,
  0x04, 0x00, 0x00, 0x00, 0x74, 0xfe, 0xff, 0xff, 0x2c, 0x00, 0x00, 0x00,
  0x20, 0x00, 0x00, 0x00, 0x14, 0x00, 0x00, 0x00, 0x04, 0x00, 0x00, 0x00,
  0x01, 0x00, 0x00, 0x00, 0x80, 0xff, 0xff, 0xff, 0xff, 0xff, 0xff, 0xff,
  0x01, 0x00, 0x00, 0x00, 0x67, 0x07, 0xc4, 0x3b, 0x01, 0x00, 0x00, 0x00,
  0x60, 0x43, 0xc3, 0x3f, 0x01, 0x00, 0x00, 0x00, 0x00, 0x00, 0x00, 0x00,
  0x1e, 0x00, 0x00, 0x00, 0x73, 0x65, 0x71, 0x75, 0x65, 0x6e, 0x74, 0x69,
  0x61, 0x6c, 0x5f, 0x32, 0x2f, 0x64, 0x65, 0x6e, 0x73, 0x65, 0x5f, 0x44,
  0x65, 0x6e, 0x73, 0x65, 0x34, 0x2f, 0x52, 0x65, 0x6c, 0x75, 0x00, 0x00,
  0x02, 0x00, 0x00, 0x00, 0x01, 0x00, 0x00, 0x00, 0x32, 0x00, 0x00, 0x00,
  0x6a, 0xfe, 0xff, 0xff, 0x00, 0x00, 0x00, 0x02, 0x60, 0x00, 0x00, 0x00,
  0x05, 0x00, 0x00, 0x00, 0x2c, 0x00, 0x00, 0x00, 0x04, 0x00, 0x00, 0x00,
  0x5c, 0xfe, 0xff, 0xff, 0x18, 0x00, 0x00, 0x00, 0x04, 0x00, 0x00, 0x00,
  0x01, 0x00, 0x00, 0x00, 0x00, 0x00, 0x00, 0x00, 0x00, 0x00, 0x00, 0x00,
  0x00, 0x00, 0x00, 0x00, 0x01, 0x00, 0x00, 0x00, 0xb2, 0x18, 0x0e, 0x37,
  0x25, 0x00, 0x00, 0x00, 0x73, 0x65, 0x71, 0x75, 0x65, 0x6e, 0x74, 0x69,
  0x61, 0x6c, 0x5f, 0x32, 0x2f, 0x64, 0x65, 0x6e, 0x73, 0x65, 0x5f, 0x44,
  0x65, 0x6e, 0x73, 0x65, 0x34, 0x2f, 0x4d, 0x61, 0x74, 0x4d, 0x75, 0x6c,
  0x5f, 0x62, 0x69, 0x61, 0x73, 0x00, 0x00, 0x00, 0x01, 0x00, 0x00, 0x00,
  0x32, 0x00, 0x00, 0x00, 0xda, 0xfe, 0xff, 0xff, 0x00, 0x00, 0x00, 0x09,
  0x88, 0x00, 0x00, 0x00, 0x06, 0x00, 0x00, 0x00, 0x40, 0x00, 0x00, 0x00,
  0x04, 0x00, 0x00, 0x00, 0x64, 0xff, 0xff, 0xff, 0x2c, 0x00, 0x00, 0x00,
  0x20, 0x00, 0x00, 0x00, 0x14, 0x00, 0x00, 0x00, 0x04, 0x00, 0x00, 0x00,
  0x01, 0x00, 0x00, 0x00, 0x00, 0x00, 0x00, 0x00, 0x00, 0x00, 0x00, 0x00,
  0x01, 0x00, 0x00, 0x00, 0xa6, 0x9c, 0x82, 0x3b, 0x01, 0x00, 0x00, 0x00,
  0x6d, 0x97, 0x01, 0x3f, 0x01, 0x00, 0x00, 0x00, 0x63, 0x98, 0xe6, 0xbe,
  0x39, 0x00, 0x00, 0x00, 0x73, 0x65, 0x71, 0x75, 0x65, 0x6e, 0x74, 0x69,
  0x61, 0x6c, 0x5f, 0x32, 0x2f, 0x64, 0x65, 0x6e, 0x73, 0x65, 0x5f, 0x44,
  0x65, 0x6e, 0x73, 0x65, 0x34, 0x2f, 0x4d, 0x61, 0x74, 0x4d, 0x75, 0x6c,
  0x2f, 0x52, 0x65, 0x61, 0x64, 0x56, 0x61, 0x72, 0x69, 0x61, 0x62, 0x6c,
  0x65, 0x4f, 0x70, 0x2f, 0x74, 0x72, 0x61, 0x6e, 0x73, 0x70, 0x6f, 0x73,
  0x65, 0x00, 0x00, 0x00, 0x02, 0x00, 0x00, 0x00, 0x32, 0x00, 0x00, 0x00,
  0x78, 0x00, 0x00, 0x00, 0x76, 0xff, 0xff, 0xff, 0x00, 0x00, 0x00, 0x09,
  0x74, 0x00, 0x00, 0x00, 0x07, 0x00, 0x00, 0x00, 0x50, 0x00, 0x00, 0x00,
  0x10, 0x00, 0x00, 0x00, 0x0c, 0x00, 0x14, 0x00, 0x04, 0x00, 0x08, 0x00,
  0x0c, 0x00, 0x10, 0x00, 0x0c, 0x00, 0x00, 0x00, 0x30, 0x00, 0x00, 0x00,
  0x24, 0x00, 0x00, 0x00, 0x18, 0x00, 0x00, 0x00, 0x04, 0x00, 0x00, 0x00,
  0x01, 0x00, 0x00, 0x00, 0xf4, 0xff, 0xff, 0xff, 0xff, 0xff, 0xff, 0xff,
  0x00, 0x00, 0x00, 0x00, 0x01, 0x00, 0x00, 0x00, 0x41, 0x41, 0x0b, 0x3b,
  0x01, 0x00, 0x00, 0x00, 0x00, 0x60, 0x97, 0x3e, 0x01, 0x00, 0x00, 0x00,
  0x00, 0x18, 0x7c, 0xbe, 0x17, 0x00, 0x00, 0x00, 0x64, 0x65, 0x6e, 0x73,
  0x65, 0x5f, 0x44, 0x65, 0x6e, 0x73, 0x65, 0x34, 0x5f, 0x69, 0x6e, 0x70,
  0x75, 0x74, 0x5f, 0x69, 0x6e, 0x74, 0x38, 0x00, 0x02, 0x00, 0x00, 0x00,
  0x01, 0x00, 0x00, 0x00, 0x78, 0x00, 0x00, 0x00, 0x00, 0x00, 0x0e, 0x00,
  0x18, 0x00, 0x08, 0x00, 0x07, 0x00, 0x0c, 0x00, 0x10, 0x00, 0x14, 0x00,
  0x0e, 0x00, 0x00, 0x00, 0x00, 0x00, 0x00, 0x09, 0x54, 0x00, 0x00, 0x00,
  0x0a, 0x00, 0x00, 0x00, 0x38, 0x00, 0x00, 0x00, 0x10, 0x00, 0x00, 0x00,
  0x0c, 0x00, 0x0c, 0x00, 0x00, 0x00, 0x00, 0x00, 0x04, 0x00, 0x08, 0x00,
  0x0c, 0x00, 0x00, 0x00, 0x18, 0x00, 0x00, 0x00, 0x04, 0x00, 0x00, 0x00,
  0x01, 0x00, 0x00, 0x00, 0x80, 0xff, 0xff, 0xff, 0xff, 0xff, 0xff, 0xff,
  0x00, 0x00, 0x00, 0x00, 0x01, 0x00, 0x00, 0x00, 0x00, 0x00, 0x80, 0x3b,
  0x0d, 0x00, 0x00, 0x00, 0x49, 0x64, 0x65, 0x6e, 0x74, 0x69, 0x74, 0x79,
  0x5f, 0x69, 0x6e, 0x74, 0x38, 0x00, 0x00, 0x00, 0x02, 0x00, 0x00, 0x00,
  0x01, 0x00, 0x00, 0x00, 0x03, 0x00, 0x00, 0x00, 0x04, 0x00, 0x00, 0x00,
  0x4c, 0x00, 0x00, 0x00, 0x30, 0x00, 0x00, 0x00, 0x1c, 0x00, 0x00, 0x00,
  0x04, 0x00, 0x00, 0x00, 0xe6, 0xff, 0xff, 0xff, 0x00, 0x00, 0x00, 0x06,
  0x02, 0x00, 0x00, 0x00, 0x00, 0x00, 0x06, 0x00, 0x06, 0x00, 0x05, 0x00,
  0x06, 0x00, 0x00, 0x00, 0x00, 0x72, 0x0a, 0x00, 0x0e, 0x00, 0x07, 0x00,
  0x00, 0x00, 0x08, 0x00, 0x0a, 0x00, 0x00, 0x00, 0x00, 0x00, 0x00, 0x19,
  0x02, 0x00, 0x00, 0x00, 0x00, 0x00, 0x0a, 0x00, 0x0c, 0x00, 0x07, 0x00,
  0x00, 0x00, 0x08, 0x00, 0x0a, 0x00, 0x00, 0x00, 0x00, 0x00, 0x00, 0x09,
  0x04, 0x00, 0x00, 0x00

};